/* Auto-generated C header file for TensorFlow Lite model */
/* Generated from: dense_model.tflite */
/* Model size: 5,408 bytes (5.3 KB) */

#ifndef MODEL_DATA_H
#define MODEL_DATA_H

#ifdef __cplusplus
extern "C" {
#endif

/* TensorFlow Lite model data */
const unsigned char dense_model_tflite[] = {
  0x20, 0x00, 0x00, 0x00, 0x54, 0x46, 0x4c, 0x33, 0x00, 0x00, 0x00, 0x00, 0x14, 0x00, 0x20, 0x00,
  0x1c, 0x00, 0x18, 0x00, 0x14, 0x00, 0x10, 0x00, 0x0c, 0x00, 0x00, 0x00, 0x08, 0x00, 0x04, 0x00,
  0x14, 0x00, 0x00, 0x00, 0x1c, 0x00, 0x00, 0x00, 0x8c, 0x00, 0x00, 0x00, 0xe4, 0x00, 0x00, 0x00,
  0x68, 0x06, 0x00, 0x00, 0x78, 0x06, 0x00, 0x00, 0x94, 0x14, 0x00, 0x00, 0x03, 0x00, 0x00, 0x00,
  0x01, 0x00, 0x00, 0x00, 0x04, 0x00, 0x00, 0x00, 0x42, 0xf9, 0xff, 0xff, 0x0c, 0x00, 0x00, 0x00,
  0x1c, 0x00, 0x00, 0x00, 0x3c, 0x00, 0x00, 0x00, 0x0f, 0x00, 0x00, 0x00, 0x73, 0x65, 0x72, 0x76,
  0x69, 0x6e, 0x67, 0x5f, 0x64, 0x65, 0x66, 0x61, 0x75, 0x6c, 0x74, 0x00, 0x01, 0x00, 0x00, 0x00,
  0x04, 0x00, 0x00, 0x00, 0x90, 0xff, 0xff, 0xff, 0x0e, 0x00, 0x00, 0x00, 0x04, 0x00, 0x00, 0x00,
  0x08, 0x00, 0x00, 0x00, 0x6f, 0x75, 0x74, 0x70, 0x75, 0x74, 0x5f, 0x30, 0x00, 0x00, 0x00, 0x00,
  0x01, 0x00, 0x00, 0x00, 0x04, 0x00, 0x00, 0x00, 0x1e, 0xfa, 0xff, 0xff, 0x04, 0x00, 0x00, 0x00,
  0x0c, 0x00, 0x00, 0x00, 0x6b, 0x65, 0x72, 0x61, 0x73, 0x5f, 0x74, 0x65, 0x6e, 0x73, 0x6f, 0x72,
  0x00, 0x00, 0x00, 0x00, 0x02, 0x00, 0x00, 0x00, 0x34, 0x00, 0x00, 0x00, 0x04, 0x00, 0x00, 0x00,
  0xdc, 0xff, 0xff, 0xff, 0x11, 0x00, 0x00, 0x00, 0x04, 0x00, 0x00, 0x00, 0x13, 0x00, 0x00, 0x00,
  0x43, 0x4f, 0x4e, 0x56, 0x45, 0x52, 0x53, 0x49, 0x4f, 0x4e, 0x5f, 0x4d, 0x45, 0x54, 0x41, 0x44,
  0x41, 0x54, 0x41, 0x00, 0x08, 0x00, 0x0c, 0x00, 0x08, 0x00, 0x04, 0x00, 0x08, 0x00, 0x00, 0x00,
  0x10, 0x00, 0x00, 0x00, 0x04, 0x00, 0x00, 0x00, 0x13, 0x00, 0x00, 0x00, 0x6d, 0x69, 0x6e, 0x5f,
  0x72, 0x75, 0x6e, 0x74, 0x69, 0x6d, 0x65, 0x5f, 0x76, 0x65, 0x72, 0x73, 0x69, 0x6f, 0x6e, 0x00,
  0x12, 0x00, 0x00, 0x00, 0x80, 0x05, 0x00, 0x00, 0x78, 0x05, 0x00, 0x00, 0x64, 0x05, 0x00, 0x00,
  0x44, 0x05, 0x00, 0x00, 0x14, 0x05, 0x00, 0x00, 0x84, 0x04, 0x00, 0x00, 0x34, 0x04, 0x00, 0x00,
  0x24, 0x02, 0x00, 0x00, 0x94, 0x01, 0x00, 0x00, 0xc4, 0x00, 0x00, 0x00, 0xbc, 0x00, 0x00, 0x00,
  0xb4, 0x00, 0x00, 0x00, 0xac, 0x00, 0x00, 0x00, 0xa4, 0x00, 0x00, 0x00, 0x9c, 0x00, 0x00, 0x00,
  0x94, 0x00, 0x00, 0x00, 0x74, 0x00, 0x00, 0x00, 0x04, 0x00, 0x00, 0x00, 0xe2, 0xfa, 0xff, 0xff,
  0x04, 0x00, 0x00, 0x00, 0x60, 0x00, 0x00, 0x00, 0x0c, 0x00, 0x00, 0x00, 0x08, 0x00, 0x0e, 0x00,
  0x08, 0x00, 0x04, 0x00, 0x08, 0x00, 0x00, 0x00, 0x10, 0x00, 0x00, 0x00, 0x28, 0x00, 0x00, 0x00,
  0x00, 0x00, 0x06, 0x00, 0x08, 0x00, 0x04, 0x00, 0x06, 0x00, 0x00, 0x00, 0x04, 0x00, 0x00, 0x00,
  0x01, 0x00, 0x00, 0x00, 0xeb, 0x03, 0x00, 0x00, 0x0c, 0x00, 0x18, 0x00, 0x14, 0x00, 0x10, 0x00,
  0x0c, 0x00, 0x04, 0x00, 0x0c, 0x00, 0x00, 0x00, 0xbf, 0x8f, 0xb5, 0xc6, 0x92, 0x24, 0x87, 0x11,
  0x02, 0x00, 0x00, 0x00, 0x02, 0x00, 0x00, 0x00, 0x04, 0x00, 0x00, 0x00, 0x06, 0x00, 0x00, 0x00,
  0x32, 0x2e, 0x32, 0x30, 0x2e, 0x30, 0x00, 0x00, 0x4e, 0xfb, 0xff, 0xff, 0x04, 0x00, 0x00, 0x00,
  0x10, 0x00, 0x00, 0x00, 0x31, 0x2e, 0x31, 0x34, 0x2e, 0x30, 0x00, 0x00, 0x00, 0x00, 0x00, 0x00,
  0x00, 0x00, 0x00, 0x00, 0x50, 0xed, 0xff, 0xff, 0x54, 0xed, 0xff, 0xff, 0x58, 0xed, 0xff, 0xff,
  0x5c, 0xed, 0xff, 0xff, 0x60, 0xed, 0xff, 0xff, 0x64, 0xed, 0xff, 0xff, 0x82, 0xfb, 0xff, 0xff,
  0x04, 0x00, 0x00, 0x00, 0xc0, 0x00, 0x00, 0x00, 0x35, 0x81, 0xd7, 0x5d, 0x11, 0x24, 0x3d, 0xf4,
  0x75, 0x7f, 0x88, 0x24, 0xf5, 0xd7, 0xbb, 0xce, 0x7a, 0x81, 0x7f, 0xc5, 0x02, 0xb0, 0xd3, 0x25,
  0x81, 0x22, 0x3f, 0x55, 0x18, 0x52, 0x06, 0x89, 0x65, 0x78, 0x15, 0x81, 0x7f, 0x39, 0x1a, 0xef,
  0xdc, 0x2b, 0x81, 0x0b, 0x4c, 0xd6, 0x99, 0xfe, 0xc8, 0x81, 0x34, 0xcd, 0x08, 0x35, 0x5b, 0x36,
  0x81, 0x37, 0x27, 0x83, 0x81, 0xc6, 0x00, 0xc2, 0x47, 0xd1, 0xa6, 0xcd, 0x81, 0xc8, 0xe0, 0x23,
  0x7f, 0x68, 0x55, 0x46, 0xb1, 0xe9, 0x31, 0xdb, 0x7f, 0xa2, 0x88, 0xd4, 0xd7, 0xfa, 0xf5, 0x81,
  0x0b, 0x97, 0x50, 0xbe, 0x8d, 0x22, 0x57, 0x7f, 0x81, 0xad, 0xb8, 0x02, 0x26, 0x07, 0xce, 0x54,
  0x7f, 0x4b, 0x12, 0xab, 0x38, 0x41, 0x81, 0xff, 0x13, 0x16, 0xc0, 0x1b, 0xd6, 0xcd, 0x7f, 0x9d,
  0x8b, 0x81, 0xbc, 0x75, 0xeb, 0xeb, 0x5f, 0x87, 0xca, 0x9e, 0xf0, 0x7f, 0x7f, 0x54, 0x44, 0xa6,
  0x10, 0x9c, 0x98, 0x56, 0x5a, 0xdb, 0x7f, 0x8d, 0x7f, 0x10, 0x16, 0xf6, 0xa1, 0xc7, 0x81, 0xd2,
  0xf8, 0xa5, 0xea, 0xe2, 0x16, 0x87, 0x2b, 0x81, 0xca, 0xfe, 0xef, 0x81, 0x2c, 0x55, 0xac, 0xad,
  0x31, 0x66, 0x04, 0x5a, 0x7f, 0xc4, 0xa5, 0x7f, 0x88, 0xb9, 0xb2, 0xb0, 0xdc, 0x01, 0x7f, 0x44,
  0x5c, 0x19, 0x7f, 0x30, 0xdb, 0x98, 0x42, 0x85, 0x4e, 0xfc, 0xff, 0xff, 0x04, 0x00, 0x00, 0x00,
  0x80, 0x00, 0x00, 0x00, 0x0d, 0xfe, 0xff, 0xff, 0xe2, 0xfe, 0xff, 0xff, 0x47, 0xfe, 0xff, 0xff,
  0x7b, 0x02, 0x00, 0x00, 0x3d, 0x02, 0x00, 0x00, 0xd6, 0xff, 0xff, 0xff, 0x0c, 0x02, 0x00, 0x00,
  0x56, 0x02, 0x00, 0x00, 0xe9, 0x01, 0x00, 0x00, 0x90, 0x04, 0x00, 0x00, 0x0d, 0x01, 0x00, 0x00,
  0x21, 0xfe, 0xff, 0xff, 0x77, 0x00, 0x00, 0x00, 0x25, 0xff, 0xff, 0xff, 0x76, 0x03, 0x00, 0x00,
  0x9a, 0x01, 0x00, 0x00, 0x19, 0x02, 0x00, 0x00, 0x38, 0xfe, 0xff, 0xff, 0xd9, 0x00, 0x00, 0x00,
  0x01, 0xfd, 0xff, 0xff, 0x92, 0xf9, 0xff, 0xff, 0xec, 0xfd, 0xff, 0xff, 0xc3, 0x01, 0x00, 0x00,
  0x09, 0xff, 0xff, 0xff, 0x4f, 0x03, 0x00, 0x00, 0x4c, 0x03, 0x00, 0x00, 0xbe, 0xfd, 0xff, 0xff,
  0xfd, 0xfd, 0xff, 0xff, 0x4c, 0xff, 0xff, 0xff, 0xd8, 0xff, 0xff, 0xff, 0x52, 0xfd, 0xff, 0xff,
  0x94, 0xff, 0xff, 0xff, 0xda, 0xfc, 0xff, 0xff, 0x04, 0x00, 0x00, 0x00, 0x00, 0x02, 0x00, 0x00,
  0x4c, 0xf7, 0x8c, 0x36, 0xaf, 0x21, 0xa3, 0xdc, 0xb1, 0xdf, 0xcf, 0x46, 0xcc, 0xe1, 0xb9, 0xe6,
  0xc0, 0xf8, 0x65, 0x18, 0x0c, 0xcf, 0x08, 0x62, 0x0c, 0x81, 0x29, 0x60, 0x3f, 0x6e, 0x3f, 0xb7,
  0xfd, 0x11, 0x15, 0x7f, 0x97, 0x27, 0x52, 0xb2, 0x9a, 0x5b, 0xec, 0xcc, 0xd9, 0xc4, 0x5d, 0x4a,
  0xad, 0x5b, 0x11, 0x03, 0x32, 0xc7, 0x09, 0xe2, 0x4d, 0x30, 0xc0, 0xf5, 0xf5, 0xb8, 0x05, 0x65,
  0xfd, 0xdd, 0x7b, 0x8b, 0x87, 0xcf, 0x69, 0xe4, 0x24, 0x3f, 0x26, 0x32, 0x59, 0xf7, 0xbb, 0x21,
  0x00, 0x89, 0x03, 0x6c, 0x04, 0xc6, 0x37, 0xa2, 0x2e, 0x7f, 0x6b, 0x15, 0x54, 0xfd, 0x04, 0x9f,
  0xb1, 0xe6, 0x55, 0xc9, 0x2c, 0xb5, 0xcb, 0x7f, 0x6a, 0x22, 0x55, 0x67, 0xad, 0xc6, 0x61, 0xeb,
  0xd1, 0xe5, 0x1f, 0xd6, 0xe9, 0xe6, 0x1c, 0x1a, 0x3d, 0x1b, 0xd0, 0x43, 0x98, 0x2d, 0xd9, 0xb7,
  0xd2, 0xea, 0x45, 0xbd, 0x60, 0xf9, 0x6d, 0x39, 0x6a, 0xce, 0x1f, 0x53, 0x10, 0xd8, 0x0c, 0x6b,
  0x2c, 0x5f, 0x07, 0xa9, 0x6b, 0xac, 0x81, 0x55, 0xf1, 0x3c, 0xbb, 0x2a, 0xe2, 0xf4, 0xc4, 0xbf,
  0x37, 0x52, 0x1f, 0xf6, 0x0b, 0x38, 0x99, 0x36, 0x3f, 0x24, 0x37, 0xe7, 0xeb, 0xac, 0x46, 0xd5,
  0x18, 0xeb, 0xc8, 0x03, 0x42, 0xa5, 0xd9, 0xcf, 0x98, 0x7f, 0xe3, 0x2e, 0xb0, 0x45, 0x4f, 0x19,
  0x81, 0xa1, 0xc3, 0xca, 0x41, 0xf8, 0xdc, 0xc9, 0x59, 0x1e, 0x1f, 0xab, 0xa2, 0x5a, 0xf4, 0x19,
  0x34, 0x37, 0x88, 0x42, 0xac, 0x57, 0x01, 0xdc, 0x84, 0xa8, 0xb6, 0xb8, 0xf2, 0xff, 0xfc, 0x30,
  0xf2, 0xbc, 0xc8, 0x93, 0xb5, 0x8d, 0xb8, 0xcb, 0x6e, 0xce, 0x03, 0x13, 0x46, 0x81, 0x1d, 0x3f,
  0xaa, 0xc7, 0x28, 0x29, 0x37, 0xa3, 0xe8, 0x73, 0xca, 0x2d, 0x8b, 0xd9, 0x9a, 0x40, 0x7a, 0xeb,
  0xbf, 0xbe, 0x0a, 0x4b, 0xc1, 0xcf, 0x4a, 0xb0, 0xdc, 0x16, 0x44, 0x1c, 0x3f, 0xe3, 0x10, 0x0a,
  0xc6, 0x22, 0x7f, 0x20, 0xad, 0xcb, 0x79, 0x29, 0x0e, 0xa4, 0xb3, 0xcb, 0xb1, 0x73, 0x0d, 0xfc,
  0xa8, 0x45, 0x5c, 0xa0, 0x81, 0xfb, 0xf5, 0xe3, 0xbc, 0xf3, 0xe0, 0x4d, 0xf1, 0xd4, 0x9c, 0x34,
  0x29, 0xe8, 0x34, 0xfb, 0xfc, 0x9c, 0x5a, 0xe1, 0x68, 0xa6, 0xc7, 0x93, 0xaf, 0x40, 0x4a, 0xaf,
  0xcb, 0x3e, 0x9d, 0x46, 0xbb, 0x9a, 0x8a, 0x26, 0x5f, 0xbe, 0xff, 0xb2, 0xd2, 0xd6, 0xa4, 0x4c,
  0xac, 0x2b, 0x81, 0x5e, 0xf6, 0x09, 0x0b, 0xe1, 0xb0, 0x8c, 0x72, 0x6a, 0xbc, 0x1b, 0xa9, 0x10,
  0x1a, 0x06, 0xbe, 0xeb, 0x55, 0xef, 0xdd, 0x59, 0x1a, 0xe5, 0x66, 0x7f, 0x30, 0xf2, 0x4f, 0x2c,
  0x72, 0xf4, 0x35, 0xc9, 0xcc, 0x9e, 0xd2, 0x35, 0x99, 0xd0, 0xfc, 0x6c, 0x98, 0xfc, 0xdd, 0xe7,
  0xca, 0x6c, 0x22, 0x6d, 0xe5, 0xe7, 0xf0, 0x17, 0xbe, 0x9e, 0x81, 0x49, 0xb1, 0xf7, 0x28, 0x8a,
  0x8b, 0x0f, 0x6b, 0x6a, 0x3c, 0x2b, 0x66, 0x9f, 0x08, 0x30, 0x6f, 0x07, 0xdf, 0xe3, 0x23, 0xf9,
  0x70, 0xb1, 0xe8, 0xe7, 0xee, 0x9a, 0xc6, 0xd6, 0x47, 0x0b, 0x17, 0x50, 0x14, 0x4a, 0xb7, 0x81,
  0x87, 0xa0, 0xd6, 0xe5, 0x56, 0x5c, 0x34, 0xdb, 0xa8, 0xd8, 0xcd, 0xef, 0xed, 0x95, 0x8c, 0x33,
  0x25, 0x50, 0x22, 0xd3, 0x51, 0x0c, 0xc2, 0x5f, 0x10, 0xdb, 0xfe, 0x1d, 0xfb, 0x00, 0x7c, 0xb2,
  0x3a, 0x78, 0x40, 0x79, 0xc6, 0xe0, 0xbd, 0xa2, 0x05, 0x7f, 0xec, 0x2c, 0xa2, 0xfd, 0xc9, 0xab,
  0xcc, 0x34, 0x39, 0x00, 0x24, 0xad, 0x77, 0x23, 0x13, 0x4f, 0x44, 0xcf, 0x70, 0x54, 0x55, 0xf4,
  0xa9, 0x48, 0x72, 0xee, 0xfa, 0xde, 0x28, 0xae, 0x70, 0x81, 0xec, 0x29, 0x43, 0xfd, 0x45, 0xfc,
  0xe6, 0xfe, 0xff, 0xff, 0x04, 0x00, 0x00, 0x00, 0x40, 0x00, 0x00, 0x00, 0x64, 0xfd, 0xff, 0xff,
  0x13, 0x03, 0x00, 0x00, 0x24, 0x02, 0x00, 0x00, 0x19, 0x04, 0x00, 0x00, 0xa3, 0x00, 0x00, 0x00,
  0x9b, 0x02, 0x00, 0x00, 0x1b, 0xfd, 0xff, 0xff, 0xd6, 0x00, 0x00, 0x00, 0xbc, 0x02, 0x00, 0x00,
  0xfe, 0xfc, 0xff, 0xff, 0xd2, 0xfc, 0xff, 0xff, 0xf0, 0x00, 0x00, 0x00, 0xa5, 0xfd, 0xff, 0xff,
  0x9c, 0xfa, 0xff, 0xff, 0x1d, 0x0a, 0x00, 0x00, 0xfa, 0x00, 0x00, 0x00, 0x32, 0xff, 0xff, 0xff,
  0x04, 0x00, 0x00, 0x00, 0x80, 0x00, 0x00, 0x00, 0x7f, 0x69, 0x3b, 0xc5, 0xf3, 0x93, 0xd9, 0xec,
  0x5b, 0x3a, 0xf9, 0xaa, 0x32, 0xd8, 0x95, 0x40, 0xae, 0x81, 0xa6, 0xf1, 0x12, 0xfd, 0x45, 0xa3,
  0x32, 0x2b, 0x43, 0x74, 0xf0, 0xb3, 0xa5, 0xc3, 0x58, 0x1b, 0xf2, 0xff, 0x7f, 0xd0, 0xe6, 0xbb,
  0xb8, 0xe7, 0xac, 0x5b, 0xbd, 0x33, 0xf3, 0xda, 0x8c, 0x4a, 0x40, 0xfb, 0xdb, 0x33, 0x7f, 0x1e,
  0x24, 0x31, 0x8a, 0x91, 0xb9, 0xe3, 0xf4, 0x51, 0x24, 0xdd, 0xe8, 0xf8, 0x1e, 0x9f, 0x1f, 0xd2,
  0x7f, 0xac, 0x13, 0xd0, 0x0b, 0xb7, 0xed, 0xac, 0xae, 0x1d, 0x35, 0x7f, 0x3d, 0x7b, 0x23, 0x22,
  0xf8, 0xa2, 0x0b, 0x3b, 0xf4, 0xe0, 0x56, 0xb9, 0xbd, 0xe2, 0x06, 0xf6, 0x8b, 0xfd, 0x81, 0x94,
  0xb6, 0xab, 0x12, 0x96, 0xbc, 0x21, 0xc4, 0xc7, 0x81, 0xec, 0xad, 0xe2, 0x47, 0x9b, 0xdf, 0xcf,
  0xac, 0x9b, 0x57, 0xf9, 0x36, 0x40, 0xc7, 0x2f, 0xbe, 0xff, 0xff, 0xff, 0x04, 0x00, 0x00, 0x00,
  0x20, 0x00, 0x00, 0x00, 0x06, 0x04, 0x00, 0x00, 0x6e, 0x01, 0x00, 0x00, 0x51, 0x02, 0x00, 0x00,
  0xe4, 0xff, 0xff, 0xff, 0xbf, 0xff, 0xff, 0xff, 0x18, 0x04, 0x00, 0x00, 0x8f, 0x00, 0x00, 0x00,
  0xc2, 0xff, 0xff, 0xff, 0xea, 0xff, 0xff, 0xff, 0x04, 0x00, 0x00, 0x00, 0x08, 0x00, 0x00, 0x00,
  0x67, 0xc9, 0xe4, 0x1f, 0x7f, 0xc6, 0x7e, 0x72, 0x00, 0x00, 0x06, 0x00, 0x08, 0x00, 0x04, 0x00,
  0x06, 0x00, 0x00, 0x00, 0x04, 0x00, 0x00, 0x00, 0x04, 0x00, 0x00, 0x00, 0xef, 0xfe, 0xff, 0xff,
  0xfc, 0xf1, 0xff, 0xff, 0x00, 0xf2, 0xff, 0xff, 0x0f, 0x00, 0x00, 0x00, 0x4d, 0x4c, 0x49, 0x52,
  0x20, 0x43, 0x6f, 0x6e, 0x76, 0x65, 0x72, 0x74, 0x65, 0x64, 0x2e, 0x00, 0x01, 0x00, 0x00, 0x00,
  0x14, 0x00, 0x00, 0x00, 0x00, 0x00, 0x0e, 0x00, 0x18, 0x00, 0x14, 0x00, 0x10, 0x00, 0x0c, 0x00,
  0x08, 0x00, 0x04, 0x00, 0x0e, 0x00, 0x00, 0x00, 0x14, 0x00, 0x00, 0x00, 0x1c, 0x00, 0x00, 0x00,
  0x8c, 0x01, 0x00, 0x00, 0x90, 0x01, 0x00, 0x00, 0x94, 0x01, 0x00, 0x00, 0x04, 0x00, 0x00, 0x00,
  0x6d, 0x61, 0x69, 0x6e, 0x00, 0x00, 0x00, 0x00, 0x06, 0x00, 0x00, 0x00, 0x54, 0x01, 0x00, 0x00,
  0x04, 0x01, 0x00, 0x00, 0xb8, 0x00, 0x00, 0x00, 0x6c, 0x00, 0x00, 0x00, 0x34, 0x00, 0x00, 0x00,
  0x10, 0x00, 0x00, 0x00, 0x00, 0x00, 0x0a, 0x00, 0x10, 0x00, 0x0c, 0x00, 0x08, 0x00, 0x04, 0x00,
  0x0a, 0x00, 0x00, 0x00, 0x0c, 0x00, 0x00, 0x00, 0x10, 0x00, 0x00, 0x00, 0x02, 0x00, 0x00, 0x00,
  0x01, 0x00, 0x00, 0x00, 0x0e, 0x00, 0x00, 0x00, 0x01, 0x00, 0x00, 0x00, 0x0d, 0x00, 0x00, 0x00,
  0x92, 0xff, 0xff, 0xff, 0x14, 0x00, 0x00, 0x00, 0x00, 0x00, 0x00, 0x08, 0x10, 0x00, 0x00, 0x00,
  0x14, 0x00, 0x00, 0x00, 0x01, 0x00, 0x00, 0x00, 0xb4, 0xf2, 0xff, 0xff, 0x01, 0x00, 0x00, 0x00,
  0x0d, 0x00, 0x00, 0x00, 0x03, 0x00, 0x00, 0x00, 0x0c, 0x00, 0x00, 0x00, 0x02, 0x00, 0x00, 0x00,
  0x01, 0x00, 0x00, 0x00, 0xc6, 0xff, 0xff, 0xff, 0x14, 0x00, 0x00, 0x00, 0x00, 0x00, 0x00, 0x08,
  0x14, 0x00, 0x00, 0x00, 0x18, 0x00, 0x00, 0x00, 0x01, 0x00, 0x00, 0x00, 0x6e, 0xff, 0xff, 0xff,
  0x00, 0x00, 0x00, 0x01, 0x01, 0x00, 0x00, 0x00, 0x0c, 0x00, 0x00, 0x00, 0x03, 0x00, 0x00, 0x00,
  0x0b, 0x00, 0x00, 0x00, 0x04, 0x00, 0x00, 0x00, 0x03, 0x00, 0x00, 0x00, 0x00, 0x00, 0x0e, 0x00,
  0x18, 0x00, 0x14, 0x00, 0x10, 0x00, 0x0c, 0x00, 0x0b, 0x00, 0x04, 0x00, 0x0e, 0x00, 0x00, 0x00,
  0x14, 0x00, 0x00, 0x00, 0x00, 0x00, 0x00, 0x08, 0x14, 0x00, 0x00, 0x00, 0x18, 0x00, 0x00, 0x00,
  0x01, 0x00, 0x00, 0x00, 0xb6, 0xff, 0xff, 0xff, 0x00, 0x00, 0x00, 0x01, 0x01, 0x00, 0x00, 0x00,
  0x0b, 0x00, 0x00, 0x00, 0x03, 0x00, 0x00, 0x00, 0x0a, 0x00, 0x00, 0x00, 0x06, 0x00, 0x00, 0x00,
  0x05, 0x00, 0x00, 0x00, 0x00, 0x00, 0x0e, 0x00, 0x1a, 0x00, 0x14, 0x00, 0x10, 0x00, 0x0c, 0x00,
  0x0b, 0x00, 0x04, 0x00, 0x0e, 0x00, 0x00, 0x00, 0x1c, 0x00, 0x00, 0x00, 0x00, 0x00, 0x00, 0x08,
  0x1c, 0x00, 0x00, 0x00, 0x20, 0x00, 0x00, 0x00, 0x01, 0x00, 0x00, 0x00, 0x00, 0x00, 0x06, 0x00,
  0x08, 0x00, 0x07, 0x00, 0x06, 0x00, 0x00, 0x00, 0x00, 0x00, 0x00, 0x01, 0x01, 0x00, 0x00, 0x00,
  0x0a, 0x00, 0x00, 0x00, 0x03, 0x00, 0x00, 0x00, 0x09, 0x00, 0x00, 0x00, 0x08, 0x00, 0x00, 0x00,
  0x07, 0x00, 0x00, 0x00, 0x00, 0x00, 0x0a, 0x00, 0x0c, 0x00, 0x00, 0x00, 0x08, 0x00, 0x04, 0x00,
  0x0a, 0x00, 0x00, 0x00, 0x08, 0x00, 0x00, 0x00, 0x0c, 0x00, 0x00, 0x00, 0x01, 0x00, 0x00, 0x00,
  0x09, 0x00, 0x00, 0x00, 0x01, 0x00, 0x00, 0x00, 0x00, 0x00, 0x00, 0x00, 0x01, 0x00, 0x00, 0x00,
  0x0e, 0x00, 0x00, 0x00, 0x01, 0x00, 0x00, 0x00, 0x00, 0x00, 0x00, 0x00, 0x0f, 0x00, 0x00, 0x00,
  0xfc, 0x0b, 0x00, 0x00, 0x74, 0x0b, 0x00, 0x00, 0xf4, 0x0a, 0x00, 0x00, 0x40, 0x0a, 0x00, 0x00,
  0x84, 0x09, 0x00, 0x00, 0x70, 0x08, 0x00, 0x00, 0x54, 0x07, 0x00, 0x00, 0x80, 0x05, 0x00, 0x00,
  0xa4, 0x03, 0x00, 0x00, 0x30, 0x03, 0x00, 0x00, 0x5c, 0x02, 0x00, 0x00, 0xa0, 0x01, 0x00, 0x00,
  0xe4, 0x00, 0x00, 0x00, 0x60, 0x00, 0x00, 0x00, 0x04, 0x00, 0x00, 0x00, 0x56, 0xf4, 0xff, 0xff,
  0x00, 0x00, 0x00, 0x01, 0x14, 0x00, 0x00, 0x00, 0x1c, 0x00, 0x00, 0x00, 0x1c, 0x00, 0x00, 0x00,
  0x0f, 0x00, 0x00, 0x00, 0x34, 0x00, 0x00, 0x00, 0x02, 0x00, 0x00, 0x00, 0xff, 0xff, 0xff, 0xff,
  0x01, 0x00, 0x00, 0x00, 0x40, 0xf4, 0xff, 0xff, 0x1b, 0x00, 0x00, 0x00, 0x53, 0x74, 0x61, 0x74,
  0x65, 0x66, 0x75, 0x6c, 0x50, 0x61, 0x72, 0x74, 0x69, 0x74, 0x69, 0x6f, 0x6e, 0x65, 0x64, 0x43,
  0x61, 0x6c, 0x6c, 0x5f, 0x31, 0x3a, 0x30, 0x00, 0x02, 0x00, 0x00, 0x00, 0x01, 0x00, 0x00, 0x00,
  0x01, 0x00, 0x00, 0x00, 0x56, 0xfd, 0xff, 0xff, 0x00, 0x00, 0x00, 0x01, 0x18, 0x00, 0x00, 0x00,
  0x20, 0x00, 0x00, 0x00, 0x40, 0x00, 0x00, 0x00, 0x0e, 0x00, 0x00, 0x00, 0x00, 0x00, 0x00, 0x09,
  0x58, 0x00, 0x00, 0x00, 0x02, 0x00, 0x00, 0x00, 0xff, 0xff, 0xff, 0xff, 0x01, 0x00, 0x00, 0x00,
  0x2c, 0xf5, 0xff, 0xff, 0x08, 0x00, 0x00, 0x00, 0x14, 0x00, 0x00, 0x00, 0x01, 0x00, 0x00, 0x00,
  0xd9, 0xff, 0xff, 0xff, 0xff, 0xff, 0xff, 0xff, 0x00, 0x00, 0x00, 0x00, 0x01, 0x00, 0x00, 0x00,
  0x22, 0xc5, 0x9b, 0x3c, 0x1c, 0x00, 0x00, 0x00, 0x53, 0x74, 0x61, 0x74, 0x65, 0x66, 0x75, 0x6c,
  0x50, 0x61, 0x72, 0x74, 0x69, 0x74, 0x69, 0x6f, 0x6e, 0x65, 0x64, 0x43, 0x61, 0x6c, 0x6c, 0x5f,
  0x31, 0x3a, 0x30, 0x31, 0x00, 0x00, 0x00, 0x00, 0x02, 0x00, 0x00, 0x00, 0x01, 0x00, 0x00, 0x00,
  0x01, 0x00, 0x00, 0x00, 0xd6, 0xfd, 0xff, 0xff, 0x00, 0x00, 0x00, 0x01, 0x18, 0x00, 0x00, 0x00,
  0x20, 0x00, 0x00, 0x00, 0x40, 0x00, 0x00, 0x00, 0x0d, 0x00, 0x00, 0x00, 0x00, 0x00, 0x00, 0x09,
  0x90, 0x00, 0x00, 0x00, 0x02, 0x00, 0x00, 0x00, 0xff, 0xff, 0xff, 0xff, 0x08, 0x00, 0x00, 0x00,
  0xac, 0xf5, 0xff, 0xff, 0x08, 0x00, 0x00, 0x00, 0x14, 0x00, 0x00, 0x00, 0x01, 0x00, 0x00, 0x00,
  0x80, 0xff, 0xff, 0xff, 0xff, 0xff, 0xff, 0xff, 0x00, 0x00, 0x00, 0x00, 0x01, 0x00, 0x00, 0x00,
  0xa5, 0xe6, 0x85, 0x3c, 0x55, 0x00, 0x00, 0x00, 0x73, 0x65, 0x71, 0x75, 0x65, 0x6e, 0x74, 0x69,
  0x61, 0x6c, 0x5f, 0x31, 0x2f, 0x64, 0x65, 0x6e, 0x73, 0x65, 0x33, 0x5f, 0x31, 0x2f, 0x4d, 0x61,
  0x74, 0x4d, 0x75, 0x6c, 0x3b, 0x73, 0x65, 0x71, 0x75, 0x65, 0x6e, 0x74, 0x69, 0x61, 0x6c, 0x5f,
  0x31, 0x2f, 0x64, 0x65, 0x6e, 0x73, 0x65, 0x33, 0x5f, 0x31, 0x2f, 0x52, 0x65, 0x6c, 0x75, 0x3b,
  0x73, 0x65, 0x71, 0x75, 0x65, 0x6e, 0x74, 0x69, 0x61, 0x6c, 0x5f, 0x31, 0x2f, 0x64, 0x65, 0x6e,
  0x73, 0x65, 0x33, 0x5f, 0x31, 0x2f, 0x42, 0x69, 0x61, 0x73, 0x41, 0x64, 0x64, 0x00, 0x00, 0x00,
  0x02, 0x00, 0x00, 0x00, 0x01, 0x00, 0x00, 0x00, 0x08, 0x00, 0x00, 0x00, 0x8e, 0xfe, 0xff, 0xff,
  0x00, 0x00, 0x00, 0x01, 0x18, 0x00, 0x00, 0x00, 0x20, 0x00, 0x00, 0x00, 0x40, 0x00, 0x00, 0x00,
  0x0c, 0x00, 0x00, 0x00, 0x00, 0x00, 0x00, 0x09, 0x90, 0x00, 0x00, 0x00, 0x02, 0x00, 0x00, 0x00,
  0xff, 0xff, 0xff, 0xff, 0x10, 0x00, 0x00, 0x00, 0x64, 0xf6, 0xff, 0xff, 0x08, 0x00, 0x00, 0x00,
  0x14, 0x00, 0x00, 0x00, 0x01, 0x00, 0x00, 0x00, 0x80, 0xff, 0xff, 0xff, 0xff, 0xff, 0xff, 0xff,
  0x00, 0x00, 0x00, 0x00, 0x01, 0x00, 0x00, 0x00, 0xf5, 0x7b, 0xb2, 0x3c, 0x55, 0x00, 0x00, 0x00,
  0x73, 0x65, 0x71, 0x75, 0x65, 0x6e, 0x74, 0x69, 0x61, 0x6c, 0x5f, 0x31, 0x2f, 0x64, 0x65, 0x6e,
  0x73, 0x65, 0x32, 0x5f, 0x31, 0x2f, 0x4d, 0x61, 0x74, 0x4d, 0x75, 0x6c, 0x3b, 0x73, 0x65, 0x71,
  0x75, 0x65, 0x6e, 0x74, 0x69, 0x61, 0x6c, 0x5f, 0x31, 0x2f, 0x64, 0x65, 0x6e, 0x73, 0x65, 0x32,
  0x5f, 0x31, 0x2f, 0x52, 0x65, 0x6c, 0x75, 0x3b, 0x73, 0x65, 0x71, 0x75, 0x65, 0x6e, 0x74, 0x69,
  0x61, 0x6c, 0x5f, 0x31, 0x2f, 0x64, 0x65, 0x6e, 0x73, 0x65, 0x32, 0x5f, 0x31, 0x2f, 0x42, 0x69,
  0x61, 0x73, 0x41, 0x64, 0x64, 0x00, 0x00, 0x00, 0x02, 0x00, 0x00, 0x00, 0x01, 0x00, 0x00, 0x00,
  0x10, 0x00, 0x00, 0x00, 0x46, 0xff, 0xff, 0xff, 0x00, 0x00, 0x00, 0x01, 0x18, 0x00, 0x00, 0x00,
  0x20, 0x00, 0x00, 0x00, 0x40, 0x00, 0x00, 0x00, 0x0b, 0x00, 0x00, 0x00, 0x00, 0x00, 0x00, 0x09,
  0x90, 0x00, 0x00, 0x00, 0x02, 0x00, 0x00, 0x00, 0xff, 0xff, 0xff, 0xff, 0x20, 0x00, 0x00, 0x00,
  0x1c, 0xf7, 0xff, 0xff, 0x08, 0x00, 0x00, 0x00, 0x14, 0x00, 0x00, 0x00, 0x01, 0x00, 0x00, 0x00,
  0x80, 0xff, 0xff, 0xff, 0xff, 0xff, 0xff, 0xff, 0x00, 0x00, 0x00, 0x00, 0x01, 0x00, 0x00, 0x00,
  0x2a, 0x1b, 0x8e, 0x3c, 0x55, 0x00, 0x00, 0x00, 0x73, 0x65, 0x71, 0x75, 0x65, 0x6e, 0x74, 0x69,
  0x61, 0x6c, 0x5f, 0x31, 0x2f, 0x64, 0x65, 0x6e, 0x73, 0x65, 0x31, 0x5f, 0x31, 0x2f, 0x4d, 0x61,
  0x74, 0x4d, 0x75, 0x6c, 0x3b, 0x73, 0x65, 0x71, 0x75, 0x65, 0x6e, 0x74, 0x69, 0x61, 0x6c, 0x5f,
  0x31, 0x2f, 0x64, 0x65, 0x6e, 0x73, 0x65, 0x31, 0x5f, 0x31, 0x2f, 0x52, 0x65, 0x6c, 0x75, 0x3b,
  0x73, 0x65, 0x71, 0x75, 0x65, 0x6e, 0x74, 0x69, 0x61, 0x6c, 0x5f, 0x31, 0x2f, 0x64, 0x65, 0x6e,
  0x73, 0x65, 0x31, 0x5f, 0x31, 0x2f, 0x42, 0x69, 0x61, 0x73, 0x41, 0x64, 0x64, 0x00, 0x00, 0x00,
  0x02, 0x00, 0x00, 0x00, 0x01, 0x00, 0x00, 0x00, 0x20, 0x00, 0x00, 0x00, 0x00, 0x00, 0x16, 0x00,
  0x20, 0x00, 0x1c, 0x00, 0x1b, 0x00, 0x14, 0x00, 0x10, 0x00, 0x0c, 0x00, 0x00, 0x00, 0x00, 0x00,
  0x08, 0x00, 0x07, 0x00, 0x16, 0x00, 0x00, 0x00, 0x00, 0x00, 0x00, 0x01, 0x18, 0x00, 0x00, 0x00,
  0x20, 0x00, 0x00, 0x00, 0x40, 0x00, 0x00, 0x00, 0x0a, 0x00, 0x00, 0x00, 0x00, 0x00, 0x00, 0x09,
  0x48, 0x00, 0x00, 0x00, 0x02, 0x00, 0x00, 0x00, 0xff, 0xff, 0xff, 0xff, 0x06, 0x00, 0x00, 0x00,
  0xec, 0xf7, 0xff, 0xff, 0x08, 0x00, 0x00, 0x00, 0x14, 0x00, 0x00, 0x00, 0x01, 0x00, 0x00, 0x00,
  0xc0, 0xff, 0xff, 0xff, 0xff, 0xff, 0xff, 0xff, 0x00, 0x00, 0x00, 0x00, 0x01, 0x00, 0x00, 0x00,
  0x93, 0x5e, 0x03, 0x3d, 0x0c, 0x00, 0x00, 0x00, 0x74, 0x66, 0x6c, 0x2e, 0x71, 0x75, 0x61, 0x6e,
  0x74, 0x69, 0x7a, 0x65, 0x00, 0x00, 0x00, 0x00, 0x02, 0x00, 0x00, 0x00, 0x01, 0x00, 0x00, 0x00,
  0x06, 0x00, 0x00, 0x00, 0x62, 0xf8, 0xff, 0xff, 0x00, 0x00, 0x00, 0x01, 0x14, 0x00, 0x00, 0x00,
  0xa8, 0x01, 0x00, 0x00, 0x09, 0x00, 0x00, 0x00, 0x00, 0x00, 0x00, 0x09, 0xb4, 0x01, 0x00, 0x00,
  0x4c, 0xf8, 0xff, 0xff, 0x08, 0x00, 0x00, 0x00, 0x0c, 0x01, 0x00, 0x00, 0x20, 0x00, 0x00, 0x00,
  0x00, 0x00, 0x00, 0x00, 0x00, 0x00, 0x00, 0x00, 0x00, 0x00, 0x00, 0x00, 0x00, 0x00, 0x00, 0x00,
  0x00, 0x00, 0x00, 0x00, 0x00, 0x00, 0x00, 0x00, 0x00, 0x00, 0x00, 0x00, 0x00, 0x00, 0x00, 0x00,
  0x00, 0x00, 0x00, 0x00, 0x00, 0x00, 0x00, 0x00, 0x00, 0x00, 0x00, 0x00, 0x00, 0x00, 0x00, 0x00,
  0x00, 0x00, 0x00, 0x00, 0x00, 0x00, 0x00, 0x00, 0x00, 0x00, 0x00, 0x00, 0x00, 0x00, 0x00, 0x00,
  0x00, 0x00, 0x00, 0x00, 0x00, 0x00, 0x00, 0x00, 0x00, 0x00, 0x00, 0x00, 0x00, 0x00, 0x00, 0x00,
  0x00, 0x00, 0x00, 0x00, 0x00, 0x00, 0x00, 0x00, 0x00, 0x00, 0x00, 0x00, 0x00, 0x00, 0x00, 0x00,
  0x00, 0x00, 0x00, 0x00, 0x00, 0x00, 0x00, 0x00, 0x00, 0x00, 0x00, 0x00, 0x00, 0x00, 0x00, 0x00,
  0x00, 0x00, 0x00, 0x00, 0x00, 0x00, 0x00, 0x00, 0x00, 0x00, 0x00, 0x00, 0x00, 0x00, 0x00, 0x00,
  0x00, 0x00, 0x00, 0x00, 0x00, 0x00, 0x00, 0x00, 0x00, 0x00, 0x00, 0x00, 0x00, 0x00, 0x00, 0x00,
  0x00, 0x00, 0x00, 0x00, 0x00, 0x00, 0x00, 0x00, 0x00, 0x00, 0x00, 0x00, 0x00, 0x00, 0x00, 0x00,
  0x00, 0x00, 0x00, 0x00, 0x00, 0x00, 0x00, 0x00, 0x00, 0x00, 0x00, 0x00, 0x00, 0x00, 0x00, 0x00,
  0x00, 0x00, 0x00, 0x00, 0x00, 0x00, 0x00, 0x00, 0x00, 0x00, 0x00, 0x00, 0x00, 0x00, 0x00, 0x00,
  0x00, 0x00, 0x00, 0x00, 0x00, 0x00, 0x00, 0x00, 0x00, 0x00, 0x00, 0x00, 0x00, 0x00, 0x00, 0x00,
  0x00, 0x00, 0x00, 0x00, 0x00, 0x00, 0x00, 0x00, 0x00, 0x00, 0x00, 0x00, 0x00, 0x00, 0x00, 0x00,
  0x00, 0x00, 0x00, 0x00, 0x00, 0x00, 0x00, 0x00, 0x00, 0x00, 0x00, 0x00, 0x00, 0x00, 0x00, 0x00,
  0x00, 0x00, 0x00, 0x00, 0x00, 0x00, 0x00, 0x00, 0x00, 0x00, 0x00, 0x00, 0x00, 0x00, 0x00, 0x00,
  0x00, 0x00, 0x00, 0x00, 0x20, 0x00, 0x00, 0x00, 0xe7, 0xd3, 0x45, 0x3b, 0x5f, 0x88, 0xfc, 0x3a,
  0x2c, 0xba, 0x14, 0x3b, 0xae, 0xdf, 0x7c, 0x3b, 0x80, 0xb3, 0x84, 0x3b, 0x52, 0x68, 0x28, 0x3b,
  0x0b, 0x41, 0x81, 0x3b, 0x46, 0xe4, 0x52, 0x3b, 0x4e, 0x2e, 0x5a, 0x3b, 0xd8, 0xfb, 0x19, 0x3b,
  0x36, 0xc8, 0x7f, 0x3b, 0x78, 0xee, 0x14, 0x3b, 0x0b, 0xe1, 0x6b, 0x3b, 0x12, 0x3a, 0xbe, 0x3a,
  0x8b, 0xaa, 0x02, 0x3b, 0x2d, 0x03, 0x30, 0x3b, 0x4e, 0xe7, 0x8b, 0x3b, 0x64, 0x90, 0x49, 0x3b,
  0xe5, 0x95, 0x4b, 0x3b, 0x53, 0x84, 0x55, 0x3b, 0x65, 0x4b, 0x0f, 0x3b, 0xce, 0x52, 0x40, 0x3b,
  0xdf, 0xed, 0x66, 0x3b, 0x45, 0xa7, 0x2b, 0x3b, 0x25, 0x1f, 0x57, 0x3b, 0x5f, 0xa2, 0x60, 0x3b,
  0x0c, 0x45, 0x32, 0x3b, 0xa5, 0xdf, 0x52, 0x3b, 0x22, 0x97, 0x22, 0x3b, 0xac, 0xfc, 0x1a, 0x3b,
  0x8b, 0x0c, 0x44, 0x3b, 0x41, 0x0a, 0x38, 0x3b, 0x12, 0x00, 0x00, 0x00, 0x74, 0x66, 0x6c, 0x2e,
  0x70, 0x73, 0x65, 0x75, 0x64, 0x6f, 0x5f, 0x71, 0x63, 0x6f, 0x6e, 0x73, 0x74, 0x37, 0x00, 0x00,
  0x02, 0x00, 0x00, 0x00, 0x20, 0x00, 0x00, 0x00, 0x06, 0x00, 0x00, 0x00, 0x3a, 0xfa, 0xff, 0xff,
  0x00, 0x00, 0x00, 0x01, 0x14, 0x00, 0x00, 0x00, 0xa4, 0x01, 0x00, 0x00, 0x08, 0x00, 0x00, 0x00,
  0x00, 0x00, 0x00, 0x02, 0xb0, 0x01, 0x00, 0x00, 0x24, 0xfa, 0xff, 0xff, 0x08, 0x00, 0x00, 0x00,
  0x08, 0x01, 0x00, 0x00, 0x20, 0x00, 0x00, 0x00, 0x00, 0x00, 0x00, 0x00, 0x00, 0x00, 0x00, 0x00,
  0x00, 0x00, 0x00, 0x00, 0x00, 0x00, 0x00, 0x00, 0x00, 0x00, 0x00, 0x00, 0x00, 0x00, 0x00, 0x00,
  0x00, 0x00, 0x00, 0x00, 0x00, 0x00, 0x00, 0x00, 0x00, 0x00, 0x00, 0x00, 0x00, 0x00, 0x00, 0x00,
  0x00, 0x00, 0x00, 0x00, 0x00, 0x00, 0x00, 0x00, 0x00, 0x00, 0x00, 0x00, 0x00, 0x00, 0x00, 0x00,
  0x00, 0x00, 0x00, 0x00, 0x00, 0x00, 0x00, 0x00, 0x00, 0x00, 0x00, 0x00, 0x00, 0x00, 0x00, 0x00,
  0x00, 0x00, 0x00, 0x00, 0x00, 0x00, 0x00, 0x00, 0x00, 0x00, 0x00, 0x00, 0x00, 0x00, 0x00, 0x00,
  0x00, 0x00, 0x00, 0x00, 0x00, 0x00, 0x00, 0x00, 0x00, 0x00, 0x00, 0x00, 0x00, 0x00, 0x00, 0x00,
  0x00, 0x00, 0x00, 0x00, 0x00, 0x00, 0x00, 0x00, 0x00, 0x00, 0x00, 0x00, 0x00, 0x00, 0x00, 0x00,
  0x00, 0x00, 0x00, 0x00, 0x00, 0x00, 0x00, 0x00, 0x00, 0x00, 0x00, 0x00, 0x00, 0x00, 0x00, 0x00,
  0x00, 0x00, 0x00, 0x00, 0x00, 0x00, 0x00, 0x00, 0x00, 0x00, 0x00, 0x00, 0x00, 0x00, 0x00, 0x00,
  0x00, 0x00, 0x00, 0x00, 0x00, 0x00, 0x00, 0x00, 0x00, 0x00, 0x00, 0x00, 0x00, 0x00, 0x00, 0x00,
  0x00, 0x00, 0x00, 0x00, 0x00, 0x00, 0x00, 0x00, 0x00, 0x00, 0x00, 0x00, 0x00, 0x00, 0x00, 0x00,
  0x00, 0x00, 0x00, 0x00, 0x00, 0x00, 0x00, 0x00, 0x00, 0x00, 0x00, 0x00, 0x00, 0x00, 0x00, 0x00,
  0x00, 0x00, 0x00, 0x00, 0x00, 0x00, 0x00, 0x00, 0x00, 0x00, 0x00, 0x00, 0x00, 0x00, 0x00, 0x00,
  0x00, 0x00, 0x00, 0x00, 0x00, 0x00, 0x00, 0x00, 0x00, 0x00, 0x00, 0x00, 0x00, 0x00, 0x00, 0x00,
  0x00, 0x00, 0x00, 0x00, 0x00, 0x00, 0x00, 0x00, 0x00, 0x00, 0x00, 0x00, 0x00, 0x00, 0x00, 0x00,
  0x00, 0x00, 0x00, 0x00, 0x00, 0x00, 0x00, 0x00, 0x20, 0x00, 0x00, 0x00, 0x09, 0x09, 0xcb, 0x38,
  0x14, 0x97, 0x81, 0x38, 0x6d, 0xa4, 0x98, 0x38, 0xe1, 0xc3, 0x01, 0x39, 0xc1, 0x31, 0x08, 0x39,
  0x32, 0xd7, 0xac, 0x38, 0x11, 0xa8, 0x04, 0x39, 0x71, 0x71, 0xd8, 0x38, 0x98, 0xec, 0xdf, 0x38,
  0x85, 0x09, 0x9e, 0x38, 0xf2, 0x41, 0x03, 0x39, 0x19, 0xda, 0x98, 0x38, 0x99, 0x16, 0xf2, 0x38,
  0xfc, 0x3b, 0x43, 0x38, 0x16, 0x1b, 0x86, 0x38, 0x4d, 0xa5, 0xb4, 0x38, 0x18, 0x96, 0x0f, 0x39,
  0xb4, 0xde, 0xce, 0x38, 0xd4, 0xf1, 0xd0, 0x38, 0x2f, 0x23, 0xdb, 0x38, 0x09, 0x11, 0x93, 0x38,
  0xd9, 0x62, 0xc5, 0x38, 0x12, 0x02, 0xed, 0x38, 0x05, 0x2c, 0xb0, 0x38, 0xd2, 0xc8, 0xdc, 0x38,
  0x26, 0x8c, 0xe6, 0x38, 0x62, 0xf6, 0xb6, 0x38, 0xb1, 0x6c, 0xd8, 0x38, 0xcf, 0xde, 0xa6, 0x38,
  0x1c, 0x11, 0x9f, 0x38, 0xb1, 0x35, 0xc9, 0x38, 0x79, 0xe2, 0xbc, 0x38, 0x12, 0x00, 0x00, 0x00,
  0x74, 0x66, 0x6c, 0x2e, 0x70, 0x73, 0x65, 0x75, 0x64, 0x6f, 0x5f, 0x71, 0x63, 0x6f, 0x6e, 0x73,
  0x74, 0x36, 0x00, 0x00, 0x01, 0x00, 0x00, 0x00, 0x20, 0x00, 0x00, 0x00, 0x0a, 0xfc, 0xff, 0xff,
  0x00, 0x00, 0x00, 0x01, 0x14, 0x00, 0x00, 0x00, 0xe8, 0x00, 0x00, 0x00, 0x07, 0x00, 0x00, 0x00,
  0x00, 0x00, 0x00, 0x09, 0xf4, 0x00, 0x00, 0x00, 0xf4, 0xfb, 0xff, 0xff, 0x08, 0x00, 0x00, 0x00,
  0x8c, 0x00, 0x00, 0x00, 0x10, 0x00, 0x00, 0x00, 0x00, 0x00, 0x00, 0x00, 0x00, 0x00, 0x00, 0x00,
  0x00, 0x00, 0x00, 0x00, 0x00, 0x00, 0x00, 0x00, 0x00, 0x00, 0x00, 0x00, 0x00, 0x00, 0x00, 0x00,
  0x00, 0x00, 0x00, 0x00, 0x00, 0x00, 0x00, 0x00, 0x00, 0x00, 0x00, 0x00, 0x00, 0x00, 0x00, 0x00,
  0x00, 0x00, 0x00, 0x00, 0x00, 0x00, 0x00, 0x00, 0x00, 0x00, 0x00, 0x00, 0x00, 0x00, 0x00, 0x00,
  0x00, 0x00, 0x00, 0x00, 0x00, 0x00, 0x00, 0x00, 0x00, 0x00, 0x00, 0x00, 0x00, 0x00, 0x00, 0x00,
  0x00, 0x00, 0x00, 0x00, 0x00, 0x00, 0x00, 0x00, 0x00, 0x00, 0x00, 0x00, 0x00, 0x00, 0x00, 0x00,
  0x00, 0x00, 0x00, 0x00, 0x00, 0x00, 0x00, 0x00, 0x00, 0x00, 0x00, 0x00, 0x00, 0x00, 0x00, 0x00,
  0x00, 0x00, 0x00, 0x00, 0x00, 0x00, 0x00, 0x00, 0x00, 0x00, 0x00, 0x00, 0x00, 0x00, 0x00, 0x00,
  0x00, 0x00, 0x00, 0x00, 0x00, 0x00, 0x00, 0x00, 0x00, 0x00, 0x00, 0x00, 0x10, 0x00, 0x00, 0x00,
  0x2f, 0x3e, 0x4b, 0x3b, 0xbe, 0x87, 0x56, 0x3b, 0x91, 0x15, 0x3b, 0x3b, 0xe7, 0x21, 0x64, 0x3b,
  0x25, 0x3e, 0x25, 0x3b, 0x11, 0xe5, 0x72, 0x3b, 0x2a, 0x6a, 0x42, 0x3b, 0x55, 0xa3, 0x31, 0x3b,
  0xd7, 0xae, 0x58, 0x3b, 0x44, 0x54, 0x53, 0x3b, 0x18, 0xe2, 0x28, 0x3b, 0x7d, 0xdc, 0x54, 0x3b,
  0xac, 0xa1, 0x3a, 0x3b, 0xf7, 0xf5, 0x3d, 0x3b, 0x02, 0x5b, 0x4a, 0x3b, 0xa7, 0x7b, 0x5a, 0x3b,
  0x12, 0x00, 0x00, 0x00, 0x74, 0x66, 0x6c, 0x2e, 0x70, 0x73, 0x65, 0x75, 0x64, 0x6f, 0x5f, 0x71,
  0x63, 0x6f, 0x6e, 0x73, 0x74, 0x35, 0x00, 0x00, 0x02, 0x00, 0x00, 0x00, 0x10, 0x00, 0x00, 0x00,
  0x20, 0x00, 0x00, 0x00, 0x22, 0xfd, 0xff, 0xff, 0x00, 0x00, 0x00, 0x01, 0x14, 0x00, 0x00, 0x00,
  0xe4, 0x00, 0x00, 0x00, 0x06, 0x00, 0x00, 0x00, 0x00, 0x00, 0x00, 0x02, 0xf0, 0x00, 0x00, 0x00,
  0x0c, 0xfd, 0xff, 0xff, 0x08, 0x00, 0x00, 0x00, 0x88, 0x00, 0x00, 0x00, 0x10, 0x00, 0x00, 0x00,
  0x00, 0x00, 0x00, 0x00, 0x00, 0x00, 0x00, 0x00, 0x00, 0x00, 0x00, 0x00, 0x00, 0x00, 0x00, 0x00,
  0x00, 0x00, 0x00, 0x00, 0x00, 0x00, 0x00, 0x00, 0x00, 0x00, 0x00, 0x00, 0x00, 0x00, 0x00, 0x00,
  0x00, 0x00, 0x00, 0x00, 0x00, 0x00, 0x00, 0x00, 0x00, 0x00, 0x00, 0x00, 0x00, 0x00, 0x00, 0x00,
  0x00, 0x00, 0x00, 0x00, 0x00, 0x00, 0x00, 0x00, 0x00, 0x00, 0x00, 0x00, 0x00, 0x00, 0x00, 0x00,
  0x00, 0x00, 0x00, 0x00, 0x00, 0x00, 0x00, 0x00, 0x00, 0x00, 0x00, 0x00, 0x00, 0x00, 0x00, 0x00,
  0x00, 0x00, 0x00, 0x00, 0x00, 0x00, 0x00, 0x00, 0x00, 0x00, 0x00, 0x00, 0x00, 0x00, 0x00, 0x00,
  0x00, 0x00, 0x00, 0x00, 0x00, 0x00, 0x00, 0x00, 0x00, 0x00, 0x00, 0x00, 0x00, 0x00, 0x00, 0x00,
  0x00, 0x00, 0x00, 0x00, 0x00, 0x00, 0x00, 0x00, 0x00, 0x00, 0x00, 0x00, 0x00, 0x00, 0x00, 0x00,
  0x10, 0x00, 0x00, 0x00, 0x1e, 0xa4, 0x61, 0x38, 0x1e, 0x2c, 0x6e, 0x38, 0xa1, 0xb3, 0x4f, 0x38,
  0x06, 0x46, 0x7d, 0x38, 0x02, 0x74, 0x37, 0x38, 0xd5, 0xd4, 0x86, 0x38, 0x09, 0xd7, 0x57, 0x38,
  0xe5, 0x36, 0x45, 0x38, 0xf2, 0x8f, 0x70, 0x38, 0x55, 0x9e, 0x6a, 0x38, 0xaa, 0x7e, 0x3b, 0x38,
  0xc7, 0x51, 0x6c, 0x38, 0xf6, 0x32, 0x4f, 0x38, 0x2e, 0xe5, 0x52, 0x38, 0xe8, 0xa7, 0x60, 0x38,
  0x8b, 0x8f, 0x72, 0x38, 0x12, 0x00, 0x00, 0x00, 0x74, 0x66, 0x6c, 0x2e, 0x70, 0x73, 0x65, 0x75,
  0x64, 0x6f, 0x5f, 0x71, 0x63, 0x6f, 0x6e, 0x73, 0x74, 0x34, 0x00, 0x00, 0x01, 0x00, 0x00, 0x00,
  0x10, 0x00, 0x00, 0x00, 0x32, 0xfe, 0xff, 0xff, 0x00, 0x00, 0x00, 0x01, 0x14, 0x00, 0x00, 0x00,
  0x88, 0x00, 0x00, 0x00, 0x05, 0x00, 0x00, 0x00, 0x00, 0x00, 0x00, 0x09, 0x94, 0x00, 0x00, 0x00,
  0x1c, 0xfe, 0xff, 0xff, 0x08, 0x00, 0x00, 0x00, 0x4c, 0x00, 0x00, 0x00, 0x08, 0x00, 0x00, 0x00,
  0x00, 0x00, 0x00, 0x00, 0x00, 0x00, 0x00, 0x00, 0x00, 0x00, 0x00, 0x00, 0x00, 0x00, 0x00, 0x00,
  0x00, 0x00, 0x00, 0x00, 0x00, 0x00, 0x00, 0x00, 0x00, 0x00, 0x00, 0x00, 0x00, 0x00, 0x00, 0x00,
  0x00, 0x00, 0x00, 0x00, 0x00, 0x00, 0x00, 0x00, 0x00, 0x00, 0x00, 0x00, 0x00, 0x00, 0x00, 0x00,
  0x00, 0x00, 0x00, 0x00, 0x00, 0x00, 0x00, 0x00, 0x00, 0x00, 0x00, 0x00, 0x00, 0x00, 0x00, 0x00,
  0x00, 0x00, 0x00, 0x00, 0x08, 0x00, 0x00, 0x00, 0xf5, 0x73, 0x68, 0x3b, 0x41, 0x8b, 0x76, 0x3b,
  0xf7, 0x38, 0x89, 0x3b, 0x3b, 0xcf, 0x82, 0x3b, 0xf1, 0x68, 0x84, 0x3b, 0x6c, 0x3d, 0x93, 0x3b,
  0xda, 0x80, 0x69, 0x3b, 0x2a, 0x3c, 0x8f, 0x3b, 0x12, 0x00, 0x00, 0x00, 0x74, 0x66, 0x6c, 0x2e,
  0x70, 0x73, 0x65, 0x75, 0x64, 0x6f, 0x5f, 0x71, 0x63, 0x6f, 0x6e, 0x73, 0x74, 0x33, 0x00, 0x00,
  0x02, 0x00, 0x00, 0x00, 0x08, 0x00, 0x00, 0x00, 0x10, 0x00, 0x00, 0x00, 0xea, 0xfe, 0xff, 0xff,
  0x00, 0x00, 0x00, 0x01, 0x14, 0x00, 0x00, 0x00, 0x84, 0x00, 0x00, 0x00, 0x04, 0x00, 0x00, 0x00,
  0x00, 0x00, 0x00, 0x02, 0x90, 0x00, 0x00, 0x00, 0xd4, 0xfe, 0xff, 0xff, 0x08, 0x00, 0x00, 0x00,
  0x48, 0x00, 0x00, 0x00, 0x08, 0x00, 0x00, 0x00, 0x00, 0x00, 0x00, 0x00, 0x00, 0x00, 0x00, 0x00,
  0x00, 0x00, 0x00, 0x00, 0x00, 0x00, 0x00, 0x00, 0x00, 0x00, 0x00, 0x00, 0x00, 0x00, 0x00, 0x00,
  0x00, 0x00, 0x00, 0x00, 0x00, 0x00, 0x00, 0x00, 0x00, 0x00, 0x00, 0x00, 0x00, 0x00, 0x00, 0x00,
  0x00, 0x00, 0x00, 0x00, 0x00, 0x00, 0x00, 0x00, 0x00, 0x00, 0x00, 0x00, 0x00, 0x00, 0x00, 0x00,
  0x00, 0x00, 0x00, 0x00, 0x00, 0x00, 0x00, 0x00, 0x08, 0x00, 0x00, 0x00, 0x2f, 0x11, 0xa2, 0x38,
  0x34, 0xe4, 0xab, 0x38, 0x1b, 0x58, 0xbf, 0x38, 0xdc, 0x66, 0xb6, 0x38, 0x29, 0xa2, 0xb8, 0x38,
  0x01, 0x50, 0xcd, 0x38, 0xa8, 0xcc, 0xa2, 0x38, 0x60, 0xba, 0xc7, 0x38, 0x12, 0x00, 0x00, 0x00,
  0x74, 0x66, 0x6c, 0x2e, 0x70, 0x73, 0x65, 0x75, 0x64, 0x6f, 0x5f, 0x71, 0x63, 0x6f, 0x6e, 0x73,
  0x74, 0x32, 0x00, 0x00, 0x01, 0x00, 0x00, 0x00, 0x08, 0x00, 0x00, 0x00, 0x9a, 0xff, 0xff, 0xff,
  0x00, 0x00, 0x00, 0x01, 0x14, 0x00, 0x00, 0x00, 0x34, 0x00, 0x00, 0x00, 0x03, 0x00, 0x00, 0x00,
  0x00, 0x00, 0x00, 0x09, 0x40, 0x00, 0x00, 0x00, 0x84, 0xff, 0xff, 0xff, 0x08, 0x00, 0x00, 0x00,
  0x14, 0x00, 0x00, 0x00, 0x01, 0x00, 0x00, 0x00, 0x00, 0x00, 0x00, 0x00, 0x00, 0x00, 0x00, 0x00,
  0x00, 0x00, 0x00, 0x00, 0x01, 0x00, 0x00, 0x00, 0x38, 0x35, 0xcd, 0x3b, 0x12, 0x00, 0x00, 0x00,
  0x74, 0x66, 0x6c, 0x2e, 0x70, 0x73, 0x65, 0x75, 0x64, 0x6f, 0x5f, 0x71, 0x63, 0x6f, 0x6e, 0x73,
  0x74, 0x31, 0x00, 0x00, 0x02, 0x00, 0x00, 0x00, 0x01, 0x00, 0x00, 0x00, 0x08, 0x00, 0x00, 0x00,
  0x00, 0x00, 0x16, 0x00, 0x1c, 0x00, 0x18, 0x00, 0x17, 0x00, 0x10, 0x00, 0x0c, 0x00, 0x08, 0x00,
  0x00, 0x00, 0x00, 0x00, 0x00, 0x00, 0x07, 0x00, 0x16, 0x00, 0x00, 0x00, 0x00, 0x00, 0x00, 0x01,
  0x20, 0x00, 0x00, 0x00, 0x40, 0x00, 0x00, 0x00, 0x02, 0x00, 0x00, 0x00, 0x00, 0x00, 0x00, 0x02,
  0x4c, 0x00, 0x00, 0x00, 0x0c, 0x00, 0x0c, 0x00, 0x00, 0x00, 0x00, 0x00, 0x08, 0x00, 0x04, 0x00,
  0x0c, 0x00, 0x00, 0x00, 0x08, 0x00, 0x00, 0x00, 0x14, 0x00, 0x00, 0x00, 0x01, 0x00, 0x00, 0x00,
  0x00, 0x00, 0x00, 0x00, 0x00, 0x00, 0x00, 0x00, 0x00, 0x00, 0x00, 0x00, 0x01, 0x00, 0x00, 0x00,
  0x10, 0xab, 0xd6, 0x38, 0x11, 0x00, 0x00, 0x00, 0x74, 0x66, 0x6c, 0x2e, 0x70, 0x73, 0x65, 0x75,
  0x64, 0x6f, 0x5f, 0x71, 0x63, 0x6f, 0x6e, 0x73, 0x74, 0x00, 0x00, 0x00, 0x01, 0x00, 0x00, 0x00,
  0x01, 0x00, 0x00, 0x00, 0x00, 0x00, 0x16, 0x00, 0x1c, 0x00, 0x18, 0x00, 0x00, 0x00, 0x14, 0x00,
  0x10, 0x00, 0x0c, 0x00, 0x00, 0x00, 0x00, 0x00, 0x08, 0x00, 0x07, 0x00, 0x16, 0x00, 0x00, 0x00,
  0x00, 0x00, 0x00, 0x01, 0x14, 0x00, 0x00, 0x00, 0x20, 0x00, 0x00, 0x00, 0x20, 0x00, 0x00, 0x00,
  0x01, 0x00, 0x00, 0x00, 0x3c, 0x00, 0x00, 0x00, 0x02, 0x00, 0x00, 0x00, 0xff, 0xff, 0xff, 0xff,
  0x06, 0x00, 0x00, 0x00, 0x04, 0x00, 0x04, 0x00, 0x04, 0x00, 0x00, 0x00, 0x1e, 0x00, 0x00, 0x00,
  0x73, 0x65, 0x72, 0x76, 0x69, 0x6e, 0x67, 0x5f, 0x64, 0x65, 0x66, 0x61, 0x75, 0x6c, 0x74, 0x5f,
  0x6b, 0x65, 0x72, 0x61, 0x73, 0x5f, 0x74, 0x65, 0x6e, 0x73, 0x6f, 0x72, 0x3a, 0x30, 0x00, 0x00,
  0x02, 0x00, 0x00, 0x00, 0x01, 0x00, 0x00, 0x00, 0x06, 0x00, 0x00, 0x00, 0x03, 0x00, 0x00, 0x00,
  0x44, 0x00, 0x00, 0x00, 0x24, 0x00, 0x00, 0x00, 0x04, 0x00, 0x00, 0x00, 0xf0, 0xff, 0xff, 0xff,
  0x06, 0x00, 0x00, 0x00, 0x02, 0x00, 0x00, 0x00, 0x00, 0x00, 0x00, 0x06, 0x0c, 0x00, 0x10, 0x00,
  0x0f, 0x00, 0x00, 0x00, 0x08, 0x00, 0x04, 0x00, 0x0c, 0x00, 0x00, 0x00, 0x09, 0x00, 0x00, 0x00,
  0x04, 0x00, 0x00, 0x00, 0x00, 0x00, 0x00, 0x09, 0x0c, 0x00, 0x0c, 0x00, 0x0b, 0x00, 0x00, 0x00,
  0x00, 0x00, 0x04, 0x00, 0x0c, 0x00, 0x00, 0x00, 0x72, 0x00, 0x00, 0x00, 0x00, 0x00, 0x00, 0x72
};

/* Model size in bytes */
const unsigned int dense_model_tflite_len = 5408;

#ifdef __cplusplus
}
#endif

#endif /* MODEL_DATA_H */
