/* Auto-generated C header file for TensorFlow Lite model */
/* Generated from: dense_model.tflite */
/* Model size: 9,248 bytes (9.0 KB) */

#ifndef MODEL_DATA_H
#define MODEL_DATA_H

#ifdef __cplusplus
extern "C" {
#endif

/* TensorFlow Lite model data */
const unsigned char dense_model_tflite[] = {
  0x1c, 0x00, 0x00, 0x00, 0x54, 0x46, 0x4c, 0x33, 0x14, 0x00, 0x20, 0x00, 0x1c, 0x00, 0x18, 0x00,
  0x14, 0x00, 0x10, 0x00, 0x0c, 0x00, 0x00, 0x00, 0x08, 0x00, 0x04, 0x00, 0x14, 0x00, 0x00, 0x00,
  0x1c, 0x00, 0x00, 0x00, 0x8c, 0x00, 0x00, 0x00, 0xe4, 0x00, 0x00, 0x00, 0xfc, 0x11, 0x00, 0x00,
  0x0c, 0x12, 0x00, 0x00, 0x58, 0x23, 0x00, 0x00, 0x03, 0x00, 0x00, 0x00, 0x01, 0x00, 0x00, 0x00,
  0x04, 0x00, 0x00, 0x00, 0x92, 0xec, 0xff, 0xff, 0x0c, 0x00, 0x00, 0x00, 0x1c, 0x00, 0x00, 0x00,
  0x3c, 0x00, 0x00, 0x00, 0x0f, 0x00, 0x00, 0x00, 0x73, 0x65, 0x72, 0x76, 0x69, 0x6e, 0x67, 0x5f,
  0x64, 0x65, 0x66, 0x61, 0x75, 0x6c, 0x74, 0x00, 0x01, 0x00, 0x00, 0x00, 0x04, 0x00, 0x00, 0x00,
  0x90, 0xff, 0xff, 0xff, 0x15, 0x00, 0x00, 0x00, 0x04, 0x00, 0x00, 0x00, 0x08, 0x00, 0x00, 0x00,
  0x6f, 0x75, 0x74, 0x70, 0x75, 0x74, 0x5f, 0x30, 0x00, 0x00, 0x00, 0x00, 0x01, 0x00, 0x00, 0x00,
  0x04, 0x00, 0x00, 0x00, 0x9a, 0xec, 0xff, 0xff, 0x04, 0x00, 0x00, 0x00, 0x0c, 0x00, 0x00, 0x00,
  0x6b, 0x65, 0x72, 0x61, 0x73, 0x5f, 0x74, 0x65, 0x6e, 0x73, 0x6f, 0x72, 0x00, 0x00, 0x00, 0x00,
  0x02, 0x00, 0x00, 0x00, 0x34, 0x00, 0x00, 0x00, 0x04, 0x00, 0x00, 0x00, 0xdc, 0xff, 0xff, 0xff,
  0x18, 0x00, 0x00, 0x00, 0x04, 0x00, 0x00, 0x00, 0x13, 0x00, 0x00, 0x00, 0x43, 0x4f, 0x4e, 0x56,
  0x45, 0x52, 0x53, 0x49, 0x4f, 0x4e, 0x5f, 0x4d, 0x45, 0x54, 0x41, 0x44, 0x41, 0x54, 0x41, 0x00,
  0x08, 0x00, 0x0c, 0x00, 0x08, 0x00, 0x04, 0x00, 0x08, 0x00, 0x00, 0x00, 0x17, 0x00, 0x00, 0x00,
  0x04, 0x00, 0x00, 0x00, 0x13, 0x00, 0x00, 0x00, 0x6d, 0x69, 0x6e, 0x5f, 0x72, 0x75, 0x6e, 0x74,
  0x69, 0x6d, 0x65, 0x5f, 0x76, 0x65, 0x72, 0x73, 0x69, 0x6f, 0x6e, 0x00, 0x19, 0x00, 0x00, 0x00,
  0x14, 0x11, 0x00, 0x00, 0x0c, 0x11, 0x00, 0x00, 0xf8, 0x10, 0x00, 0x00, 0xe4, 0x10, 0x00, 0x00,
  0xd0, 0x10, 0x00, 0x00, 0xbc, 0x10, 0x00, 0x00, 0xa4, 0x10, 0x00, 0x00, 0x74, 0x10, 0x00, 0x00,
  0xe4, 0x0f, 0x00, 0x00, 0x94, 0x0f, 0x00, 0x00, 0x84, 0x0d, 0x00, 0x00, 0xf4, 0x0c, 0x00, 0x00,
  0xe4, 0x00, 0x00, 0x00, 0xdc, 0x00, 0x00, 0x00, 0xd4, 0x00, 0x00, 0x00, 0xcc, 0x00, 0x00, 0x00,
  0xc4, 0x00, 0x00, 0x00, 0xbc, 0x00, 0x00, 0x00, 0xb4, 0x00, 0x00, 0x00, 0xac, 0x00, 0x00, 0x00,
  0xa4, 0x00, 0x00, 0x00, 0x9c, 0x00, 0x00, 0x00, 0x94, 0x00, 0x00, 0x00, 0x74, 0x00, 0x00, 0x00,
  0x04, 0x00, 0x00, 0x00, 0x7a, 0xed, 0xff, 0xff, 0x04, 0x00, 0x00, 0x00, 0x60, 0x00, 0x00, 0x00,
  0x0c, 0x00, 0x00, 0x00, 0x08, 0x00, 0x0e, 0x00, 0x08, 0x00, 0x04, 0x00, 0x08, 0x00, 0x00, 0x00,
  0x10, 0x00, 0x00, 0x00, 0x28, 0x00, 0x00, 0x00, 0x00, 0x00, 0x06, 0x00, 0x08, 0x00, 0x04, 0x00,
  0x06, 0x00, 0x00, 0x00, 0x04, 0x00, 0x00, 0x00, 0x01, 0x00, 0x00, 0x00, 0xeb, 0x03, 0x00, 0x00,
  0x0c, 0x00, 0x18, 0x00, 0x14, 0x00, 0x10, 0x00, 0x0c, 0x00, 0x04, 0x00, 0x0c, 0x00, 0x00, 0x00,
  0x9d, 0x2c, 0x25, 0x7b, 0x6f, 0x0e, 0xd2, 0xdb, 0x02, 0x00, 0x00, 0x00, 0x02, 0x00, 0x00, 0x00,
  0x04, 0x00, 0x00, 0x00, 0x06, 0x00, 0x00, 0x00, 0x32, 0x2e, 0x32, 0x30, 0x2e, 0x30, 0x00, 0x00,
  0xe6, 0xed, 0xff, 0xff, 0x04, 0x00, 0x00, 0x00, 0x10, 0x00, 0x00, 0x00, 0x31, 0x2e, 0x31, 0x34,
  0x2e, 0x30, 0x00, 0x00, 0x00, 0x00, 0x00, 0x00, 0x00, 0x00, 0x00, 0x00, 0xac, 0xde, 0xff, 0xff,
  0xb0, 0xde, 0xff, 0xff, 0xb4, 0xde, 0xff, 0xff, 0xb8, 0xde, 0xff, 0xff, 0xbc, 0xde, 0xff, 0xff,
  0xc0, 0xde, 0xff, 0xff, 0xc4, 0xde, 0xff, 0xff, 0xc8, 0xde, 0xff, 0xff, 0xcc, 0xde, 0xff, 0xff,
  0xd0, 0xde, 0xff, 0xff, 0x2a, 0xee, 0xff, 0xff, 0x04, 0x00, 0x00, 0x00, 0x00, 0x0c, 0x00, 0x00,
  0x22, 0xe0, 0xfb, 0x2e, 0x0e, 0xfe, 0x01, 0x05, 0x16, 0x12, 0xe9, 0x35, 0xf7, 0xf3, 0x1b, 0xf4,
  0x1a, 0xd7, 0xe3, 0x0c, 0x14, 0xeb, 0xe5, 0xff, 0x0d, 0x1c, 0xe4, 0xf5, 0x29, 0xfb, 0x1d, 0xd7,
  0xea, 0x08, 0xe2, 0xec, 0x0a, 0xec, 0x04, 0xf4, 0xce, 0x07, 0x06, 0xfe, 0xff, 0x28, 0xe3, 0x1c,
  0x07, 0x0d, 0xe7, 0xf0, 0xf5, 0xe5, 0xea, 0xd2, 0x15, 0xf8, 0xec, 0x19, 0x21, 0xf2, 0x41, 0xf2,
  0xf3, 0x02, 0xfd, 0xf6, 0xf8, 0x28, 0x0d, 0x09, 0x03, 0x0a, 0xfa, 0xd7, 0x0f, 0x23, 0xf9, 0x24,
  0x01, 0x2b, 0x2f, 0x17, 0xe7, 0x0c, 0xeb, 0xf4, 0xe0, 0x27, 0xfb, 0x2f, 0x81, 0xb7, 0xe6, 0xd0,
  0x14, 0x03, 0x1c, 0x1e, 0xf1, 0x09, 0x14, 0xff, 0xf4, 0x08, 0x20, 0xf8, 0x02, 0xe0, 0xfb, 0x28,
  0x12, 0xfd, 0xf5, 0xf5, 0x01, 0xe9, 0xfc, 0x16, 0x18, 0xfd, 0x0d, 0x04, 0xe5, 0x02, 0x2b, 0xe0,
  0x0d, 0x00, 0xea, 0x04, 0x0b, 0xf2, 0xf2, 0xf6, 0xde, 0xe7, 0x1d, 0xfa, 0xdc, 0xe9, 0xff, 0xf1,
  0xed, 0xfc, 0x01, 0x1f, 0x1e, 0xff, 0x02, 0xdd, 0xfd, 0x0a, 0x03, 0xfc, 0x0c, 0x01, 0xf2, 0x01,
  0x19, 0x02, 0xf2, 0xe2, 0x1d, 0xf3, 0x1c, 0xe9, 0x38, 0xfb, 0xe5, 0xea, 0x0d, 0x0f, 0xe0, 0x2c,
  0x1a, 0xf5, 0xec, 0x07, 0xd8, 0x15, 0xea, 0xeb, 0x16, 0xfe, 0xd4, 0x33, 0x81, 0xe7, 0x03, 0x0b,
  0xce, 0xc6, 0xbc, 0xec, 0x23, 0xba, 0x2d, 0x21, 0x06, 0x50, 0xaa, 0x03, 0xb7, 0x4e, 0xc4, 0xb9,
  0xf3, 0x60, 0xba, 0xc8, 0x0c, 0x5b, 0x13, 0x46, 0x35, 0xa4, 0x19, 0xd0, 0x22, 0x03, 0xbb, 0x42,
  0xc8, 0x00, 0x49, 0x99, 0xe4, 0xea, 0x04, 0xdf, 0x49, 0x1b, 0x27, 0xc2, 0x3d, 0x49, 0xd7, 0x4b,
  0xf4, 0xf4, 0x18, 0xae, 0xcb, 0x24, 0x19, 0xe2, 0xf1, 0x06, 0x07, 0xd3, 0xfe, 0x13, 0xfe, 0x1e,
  0x93, 0x20, 0xc7, 0x20, 0xc7, 0xd0, 0xff, 0x19, 0xdb, 0x26, 0x1c, 0x41, 0x12, 0x40, 0x23, 0x20,
  0x49, 0xc1, 0x21, 0xf7, 0xaa, 0x9c, 0xd8, 0xe9, 0x81, 0x0e, 0xff, 0x25, 0x60, 0xf4, 0xc8, 0x79,
  0x23, 0xba, 0xf0, 0xae, 0xc1, 0x2a, 0x22, 0x29, 0xe2, 0xf3, 0xe0, 0xe2, 0x9f, 0xd7, 0xfa, 0x3d,
  0x0e, 0x29, 0xa3, 0xd8, 0x2a, 0x19, 0x22, 0x55, 0xf5, 0xcd, 0x08, 0xfe, 0x0e, 0x23, 0x22, 0x17,
  0x0d, 0xd6, 0xf6, 0xff, 0xce, 0xf7, 0x11, 0xe3, 0x19, 0x26, 0x07, 0xcc, 0x1d, 0x0f, 0xe1, 0xef,
  0x1d, 0xc0, 0x25, 0x00, 0x49, 0x21, 0xfc, 0xf8, 0xe5, 0x3d, 0x18, 0xef, 0xd8, 0xf2, 0x04, 0xb3,
  0xdf, 0x4e, 0xc9, 0xe3, 0xfb, 0xc5, 0xae, 0x14, 0xab, 0x13, 0xf3, 0x17, 0x0a, 0x2b, 0xf9, 0xce,
  0xb4, 0xe9, 0x2a, 0x35, 0x97, 0xc9, 0xd0, 0x11, 0xdf, 0xb3, 0x1b, 0x25, 0x99, 0x81, 0xac, 0x1f,
  0xe3, 0x1b, 0x2c, 0x26, 0xfd, 0x22, 0xfa, 0xfb, 0xfc, 0x0a, 0xe6, 0xdb, 0x10, 0xf6, 0x28, 0x11,
  0xee, 0x09, 0x11, 0xfb, 0x15, 0xdf, 0x1a, 0x0b, 0x19, 0xe1, 0xe6, 0x08, 0xff, 0xff, 0xf8, 0x1c,
  0x1b, 0xff, 0x23, 0xf5, 0x07, 0x0e, 0xf3, 0x12, 0x0a, 0xe3, 0xf4, 0x15, 0xfb, 0xeb, 0xfc, 0x2c,
  0xe5, 0x05, 0xda, 0xe9, 0x13, 0x1e, 0x24, 0xe7, 0xfe, 0xe5, 0x06, 0xd3, 0x2f, 0x08, 0x29, 0x18,
  0xf0, 0x12, 0x08, 0x0e, 0xea, 0xe5, 0xda, 0x14, 0xe7, 0x22, 0xdc, 0x13, 0xf2, 0xff, 0xd8, 0xf8,
  0xe7, 0x1b, 0x2b, 0xe3, 0xf3, 0x07, 0xfa, 0xfe, 0x0e, 0x21, 0xe1, 0xee, 0x81, 0xf1, 0x1a, 0x17,
  0x1d, 0xe2, 0x23, 0x1d, 0xff, 0x9e, 0xf5, 0xc4, 0x05, 0xe1, 0xda, 0xfa, 0x16, 0x10, 0x09, 0x07,
  0x0c, 0xed, 0xc9, 0x25, 0x4b, 0xfa, 0x26, 0xb1, 0xdc, 0xfe, 0xf2, 0xf5, 0xb4, 0xc4, 0xd0, 0x05,
  0xdd, 0x0b, 0x28, 0x16, 0xe4, 0xe0, 0xd1, 0x16, 0x36, 0x69, 0x1c, 0x1f, 0x32, 0x1a, 0xf8, 0x4e,
  0x0f, 0x0f, 0xfc, 0x0a, 0x81, 0xf7, 0xeb, 0xe8, 0xf3, 0xd2, 0xd1, 0x1d, 0x06, 0x2f, 0xf1, 0x07,
  0x1e, 0x11, 0x1f, 0xda, 0x06, 0xcd, 0x11, 0x3b, 0x06, 0x24, 0x22, 0xdf, 0x2b, 0x3b, 0xe6, 0xc0,
  0x17, 0xfa, 0x23, 0xca, 0x01, 0x0e, 0x05, 0xfa, 0xc5, 0xeb, 0xa7, 0xf2, 0xa9, 0xc5, 0xee, 0x18,
  0x32, 0xf3, 0xf1, 0x02, 0xd8, 0x31, 0x09, 0xd5, 0x0a, 0x0c, 0xc0, 0xc5, 0xd5, 0xea, 0xc1, 0x0c,
  0xe3, 0xea, 0x17, 0xfc, 0x46, 0xe1, 0x0e, 0x27, 0x18, 0xd7, 0x00, 0x1b, 0xe0, 0x32, 0xe7, 0xf5,
  0xde, 0x17, 0x32, 0xe2, 0xeb, 0xe4, 0x51, 0x18, 0xe5, 0xfd, 0xff, 0xd2, 0xee, 0xec, 0xec, 0x31,
  0x36, 0x0d, 0x40, 0x11, 0xfc, 0xd1, 0xcc, 0x12, 0x37, 0x0a, 0xe5, 0x15, 0xf3, 0xd4, 0xf4, 0xf2,
  0xec, 0x0c, 0xcc, 0xdc, 0x1a, 0x14, 0xfc, 0x1d, 0xd3, 0x05, 0x0f, 0xbb, 0x1d, 0x00, 0x18, 0x2c,
  0x24, 0xef, 0x0a, 0x06, 0x1d, 0x24, 0xeb, 0xe0, 0xd8, 0xf9, 0x3a, 0x00, 0x7f, 0x06, 0x15, 0x29,
  0xd2, 0x0f, 0x1f, 0xeb, 0xdc, 0x09, 0x06, 0x11, 0x19, 0x07, 0x27, 0xf0, 0xf5, 0x1a, 0xda, 0x34,
  0x10, 0xe3, 0xfc, 0xf2, 0xec, 0xcc, 0x12, 0x35, 0xd7, 0x2a, 0x26, 0xd0, 0xdb, 0x24, 0x2a, 0xd9,
  0x05, 0xd2, 0x23, 0x29, 0x22, 0xe4, 0xfa, 0x1a, 0xe9, 0x00, 0xd5, 0xe8, 0x2b, 0x0c, 0xdd, 0x0b,
  0xff, 0xf3, 0xdc, 0xf2, 0xe1, 0x24, 0x04, 0x16, 0xe7, 0x22, 0x0b, 0x05, 0x1f, 0xf2, 0x23, 0x20,
  0xeb, 0x12, 0x1d, 0x15, 0xea, 0xf8, 0xe1, 0xf7, 0x0d, 0x05, 0xe7, 0x27, 0xec, 0xf7, 0xf6, 0x12,
  0x27, 0x21, 0xda, 0xc8, 0x14, 0xf1, 0x00, 0xeb, 0xff, 0x07, 0xd1, 0x0a, 0x81, 0xc6, 0xf0, 0xd1,
  0xe2, 0xac, 0x26, 0xdc, 0xfc, 0x1d, 0xcb, 0x13, 0xe9, 0x3f, 0x31, 0x00, 0x51, 0xe2, 0xb4, 0xcb,
  0x19, 0x0b, 0xc5, 0x25, 0x0a, 0x26, 0xcd, 0x22, 0xf7, 0x37, 0xfa, 0x23, 0x20, 0x01, 0xb6, 0xde,
  0xd3, 0x0d, 0xfa, 0xce, 0xdc, 0x0f, 0x24, 0xd5, 0xf8, 0xf5, 0x01, 0x2d, 0x3e, 0xd4, 0x2c, 0xcd,
  0xd3, 0xdf, 0x0b, 0xe8, 0x19, 0xe7, 0x59, 0x0c, 0x2b, 0x15, 0xf2, 0x00, 0x30, 0x18, 0x3d, 0xfc,
  0xc0, 0x15, 0x43, 0xcb, 0x2e, 0x0b, 0xb4, 0x19, 0x61, 0x22, 0x2f, 0xe9, 0x17, 0xf1, 0xbb, 0x12,
  0xe9, 0x1a, 0xae, 0xc8, 0x11, 0x43, 0x20, 0x20, 0xb9, 0xc8, 0xe6, 0x45, 0x81, 0xa0, 0x0c, 0x27,
  0x0c, 0x05, 0x00, 0x11, 0xeb, 0xed, 0x17, 0xe8, 0xef, 0x18, 0xf5, 0x13, 0xf8, 0x07, 0xe7, 0x1e,
  0xf8, 0xef, 0xe6, 0x0b, 0xe8, 0xfa, 0xd7, 0xf8, 0x1a, 0x18, 0xe6, 0xe5, 0x08, 0x15, 0x18, 0x1c,
  0x21, 0x07, 0xfd, 0xf2, 0x12, 0xfc, 0xf4, 0xf9, 0xe0, 0x00, 0x20, 0xe8, 0x16, 0x01, 0xfe, 0x25,
  0x0b, 0xef, 0x10, 0x0f, 0xdd, 0xe1, 0xfd, 0xe1, 0x0d, 0x05, 0xe8, 0x0d, 0xd9, 0x13, 0x19, 0x02,
  0xf8, 0xe8, 0xfb, 0x19, 0x0e, 0xf1, 0xfd, 0x1c, 0xfd, 0xe9, 0x00, 0x05, 0xf6, 0x0e, 0xf6, 0xf5,
  0xc5, 0x1a, 0x01, 0xf8, 0xc5, 0x13, 0x17, 0xf4, 0x00, 0x15, 0x0f, 0xe3, 0x81, 0x05, 0x17, 0x09,
  0xdc, 0xe7, 0xe9, 0xc7, 0x40, 0x02, 0xe6, 0x0f, 0xf5, 0xd5, 0x1f, 0x1b, 0xf8, 0x3e, 0x07, 0x06,
  0x0d, 0xdf, 0xdb, 0x05, 0x10, 0x0d, 0x25, 0xee, 0x0f, 0x07, 0x29, 0xe4, 0xe7, 0xf7, 0x0b, 0x1a,
  0x25, 0x53, 0xd5, 0x46, 0x00, 0xdd, 0xd8, 0xec, 0xda, 0xfe, 0xdd, 0xff, 0xbf, 0xdd, 0x3b, 0xf5,
  0x0b, 0xd2, 0x31, 0x3a, 0x35, 0xee, 0xf4, 0xea, 0x39, 0xdf, 0x00, 0xfc, 0xe0, 0xf2, 0xb7, 0x17,
  0x2c, 0xcd, 0xba, 0x21, 0x02, 0xcf, 0x25, 0xf2, 0xd1, 0x42, 0x25, 0x00, 0xf4, 0x15, 0x23, 0x01,
  0xe6, 0x02, 0x2b, 0xdc, 0xd0, 0x0b, 0xe5, 0x2a, 0x0c, 0x0a, 0x24, 0xf6, 0x7f, 0x35, 0xdb, 0x2e,
  0x0d, 0xdf, 0xbb, 0xf2, 0xfd, 0x10, 0xff, 0xea, 0x0e, 0x2a, 0xe3, 0xf1, 0x00, 0xdf, 0x1c, 0xf8,
  0xf4, 0x28, 0xe3, 0x2a, 0x04, 0xc8, 0x11, 0x02, 0x20, 0xfd, 0xfc, 0x09, 0xfe, 0x1e, 0x2a, 0x3c,
  0xee, 0xf1, 0xf7, 0xfb, 0x10, 0xdc, 0x42, 0xe1, 0x22, 0x19, 0x1a, 0xf1, 0xe1, 0xc4, 0x29, 0x18,
  0x15, 0x26, 0xf5, 0xee, 0xec, 0xea, 0x1e, 0xdc, 0xd6, 0x30, 0xda, 0xf3, 0xf9, 0xda, 0xf4, 0x1c,
  0x31, 0xfb, 0xba, 0xd0, 0x08, 0xf2, 0x21, 0x2b, 0xf7, 0x22, 0xd8, 0x0d, 0x1a, 0x01, 0xe1, 0xe5,
  0x18, 0xed, 0xde, 0x0a, 0x1d, 0xcf, 0x1a, 0x1d, 0xd1, 0xdf, 0x3d, 0xfb, 0x7f, 0x3a, 0xdd, 0x25,
  0x22, 0x14, 0x18, 0x29, 0xc3, 0x06, 0xc6, 0xdc, 0x1c, 0x10, 0xd7, 0xe8, 0x17, 0xe9, 0x19, 0x34,
  0xdb, 0x2d, 0x11, 0x2c, 0xf0, 0xd5, 0x23, 0xcf, 0xe6, 0xef, 0x07, 0x09, 0x1f, 0x4a, 0x1f, 0xef,
  0x05, 0xe1, 0xec, 0xe3, 0x0b, 0xf4, 0xee, 0x2b, 0xd5, 0xc2, 0xe5, 0x0f, 0xee, 0xe7, 0x36, 0xe7,
  0xc3, 0x3d, 0xdb, 0xdf, 0x0f, 0xe1, 0xf0, 0x1f, 0x2b, 0x05, 0xd2, 0x23, 0x29, 0xdb, 0x0d, 0xde,
  0x11, 0x01, 0x10, 0x13, 0x24, 0x14, 0xdf, 0xf3, 0x06, 0xfb, 0x01, 0xd6, 0x44, 0xf3, 0xef, 0x14,
  0x02, 0xfc, 0xf6, 0xf4, 0x0f, 0xce, 0xdd, 0xe2, 0x1e, 0x26, 0x32, 0xf2, 0x7f, 0x22, 0x1d, 0xe8,
  0x2e, 0x1e, 0x2c, 0xcc, 0xfe, 0x1c, 0xe7, 0xe6, 0xf3, 0x0e, 0x0b, 0x17, 0x10, 0xbe, 0xd7, 0x1a,
  0x13, 0x25, 0xf5, 0xd4, 0x1a, 0xe3, 0x04, 0x1a, 0x1c, 0xda, 0x0f, 0x13, 0xc9, 0x36, 0xe5, 0xd4,
  0x2d, 0x25, 0xc0, 0x0b, 0x01, 0x1d, 0x0f, 0xe1, 0x38, 0x13, 0x0e, 0x0f, 0x17, 0x3c, 0xd6, 0xe1,
  0xe8, 0xca, 0xc7, 0x30, 0x1a, 0xd4, 0xb7, 0xed, 0xbd, 0x0c, 0x21, 0x32, 0x12, 0xda, 0x36, 0xf0,
  0xfc, 0x10, 0x00, 0xe3, 0x20, 0xdd, 0x15, 0x04, 0x21, 0x09, 0xe3, 0xeb, 0x2c, 0x12, 0x16, 0x18,
  0x30, 0x00, 0x2b, 0x28, 0x2a, 0x47, 0x2a, 0x0f, 0x0c, 0xd7, 0x27, 0x1a, 0x7f, 0x54, 0x2a, 0x12,
  0xfa, 0x08, 0x09, 0xf7, 0xf1, 0xfb, 0xe8, 0xf7, 0xf4, 0x0f, 0x07, 0xe8, 0x13, 0xec, 0xea, 0x09,
  0x01, 0x11, 0x17, 0x16, 0xff, 0x0c, 0x0b, 0x04, 0xed, 0xf6, 0x08, 0xfe, 0xff, 0x07, 0x13, 0x08,
  0x0a, 0x04, 0xef, 0xe9, 0x05, 0x07, 0x08, 0x12, 0xf9, 0xfa, 0xed, 0xf1, 0x05, 0x0b, 0xfb, 0x15,
  0xeb, 0x09, 0x04, 0xec, 0x00, 0x02, 0x01, 0x02, 0x0a, 0xea, 0xfb, 0x10, 0x07, 0x00, 0x1c, 0xf4,
  0x05, 0xf5, 0x09, 0x04, 0x18, 0xf9, 0xfc, 0xf3, 0xfd, 0x21, 0xf0, 0xeb, 0x05, 0xfa, 0xf4, 0x09,
  0x01, 0x03, 0xfc, 0xfd, 0x07, 0xfc, 0xec, 0x08, 0xfe, 0x13, 0xfb, 0xf7, 0x81, 0xac, 0x1a, 0x06,
  0x07, 0xfe, 0xff, 0xf3, 0xf5, 0x1c, 0x01, 0x03, 0x15, 0x04, 0x1d, 0x14, 0xd2, 0xe3, 0xd3, 0xed,
  0x23, 0x05, 0xd8, 0xe0, 0xe2, 0x06, 0x0b, 0x12, 0x00, 0x24, 0xd6, 0x0a, 0x38, 0xe7, 0x17, 0x05,
  0xda, 0xec, 0x25, 0x01, 0xf0, 0x18, 0xf1, 0x11, 0xfd, 0x07, 0xf4, 0xfc, 0xe2, 0xf1, 0xf2, 0xf9,
  0xf0, 0x1c, 0x1d, 0x11, 0xfd, 0xed, 0x0a, 0xdc, 0x28, 0xfa, 0x16, 0x15, 0xee, 0xe6, 0xec, 0xd3,
  0x37, 0x2f, 0x30, 0x00, 0x09, 0xd3, 0x04, 0x1f, 0xcb, 0xf6, 0xd1, 0xff, 0xd0, 0x03, 0x12, 0x08,
  0x17, 0xf8, 0xff, 0x17, 0x19, 0x2c, 0x0f, 0xf6, 0x2e, 0x0e, 0xda, 0xed, 0x81, 0xbb, 0xfb, 0x23,
  0xcb, 0xda, 0xf2, 0xe4, 0x37, 0xdf, 0x03, 0x1b, 0x1f, 0xe6, 0xc8, 0xdf, 0xce, 0xe8, 0xb7, 0x46,
  0x3e, 0xd9, 0xb1, 0x43, 0xdd, 0x44, 0x2f, 0xf9, 0xd9, 0xf4, 0xd3, 0xc8, 0xe3, 0xfc, 0x34, 0xe2,
  0xd4, 0x12, 0xdd, 0x28, 0xba, 0xc3, 0xfd, 0x0f, 0x12, 0x2f, 0x15, 0x2f, 0x47, 0xe5, 0x57, 0xd6,
  0xdf, 0xf6, 0xe2, 0xe9, 0x12, 0xec, 0x60, 0x2a, 0x06, 0x58, 0x03, 0x01, 0xfd, 0x08, 0xf7, 0xd0,
  0x06, 0x26, 0x24, 0xff, 0x32, 0x19, 0x08, 0xc9, 0x04, 0x08, 0xf6, 0xcf, 0x23, 0x43, 0xd4, 0x0d,
  0x31, 0x29, 0xef, 0x4d, 0x17, 0xe8, 0xcd, 0x45, 0xd8, 0x35, 0x11, 0x1b, 0x81, 0xee, 0xfb, 0xef,
  0xd7, 0x38, 0x2b, 0x42, 0x05, 0xdf, 0x14, 0xec, 0x4d, 0xa7, 0xb2, 0x05, 0x1a, 0x38, 0xfa, 0xfe,
  0xbf, 0xc1, 0x2e, 0x18, 0xc3, 0x2f, 0xf0, 0x37, 0x73, 0x07, 0xd7, 0x34, 0xbb, 0x34, 0xd2, 0x03,
  0xdd, 0xc6, 0xe3, 0x05, 0xd0, 0x5b, 0x42, 0x1e, 0xba, 0xc0, 0x28, 0xc3, 0x81, 0xe7, 0x5e, 0x26,
  0x38, 0x1e, 0xb9, 0x04, 0x35, 0xcd, 0xe7, 0xd1, 0x1c, 0x46, 0xbb, 0x50, 0x57, 0xf7, 0x2f, 0xdd,
  0xec, 0xbe, 0xc7, 0xd5, 0x02, 0x49, 0x17, 0xa7, 0x0e, 0x1e, 0x38, 0x4c, 0x18, 0x9d, 0xa3, 0x3d,
  0x10, 0x65, 0xd5, 0xf9, 0xeb, 0xc4, 0x07, 0x97, 0xfc, 0x20, 0x44, 0xf7, 0x46, 0x36, 0x67, 0x49,
  0x0a, 0xf9, 0xcb, 0xea, 0x04, 0x19, 0xf5, 0xfa, 0xff, 0x19, 0xd4, 0xf5, 0xe9, 0x13, 0x1a, 0xff,
  0x1a, 0xf7, 0xde, 0x25, 0x02, 0xf0, 0x05, 0x0e, 0xe9, 0xed, 0x25, 0xd8, 0x15, 0xf8, 0xe5, 0x15,
  0x06, 0x09, 0xf9, 0xf7, 0xe7, 0x20, 0x3e, 0xf2, 0xe1, 0xcb, 0x12, 0xfa, 0x13, 0xfa, 0x36, 0x22,
  0x1f, 0x08, 0x00, 0x2f, 0xfb, 0xf0, 0x09, 0xe1, 0xfd, 0xfc, 0xd5, 0xfb, 0xeb, 0x1a, 0xe6, 0xf4,
  0x03, 0xf6, 0xd6, 0x06, 0x16, 0x1d, 0x1e, 0xe7, 0x03, 0xe0, 0xd6, 0x04, 0xf3, 0xfd, 0x22, 0x12,
  0xf6, 0xfc, 0xee, 0xe5, 0xfc, 0x01, 0xf7, 0xf1, 0xd0, 0xeb, 0x26, 0x06, 0x7f, 0x01, 0xf2, 0x09,
  0xe4, 0xfc, 0xd6, 0xef, 0x3a, 0xe6, 0xbc, 0x29, 0x17, 0x2a, 0x18, 0xf8, 0xe9, 0xf0, 0x09, 0x1e,
  0xef, 0x4d, 0x19, 0x01, 0xee, 0xe0, 0xe4, 0x2b, 0x0e, 0xe4, 0x24, 0x13, 0xe3, 0xf2, 0x0c, 0xf4,
  0x0c, 0xf5, 0x1e, 0xf8, 0x27, 0x34, 0xf8, 0x01, 0x38, 0xc8, 0x0b, 0x0b, 0xd5, 0xdf, 0x10, 0xfb,
  0xe1, 0xed, 0xd1, 0xf1, 0xe9, 0x17, 0x15, 0xe7, 0x17, 0x10, 0x06, 0x1c, 0x20, 0x1b, 0x07, 0x42,
  0xf0, 0xe7, 0x11, 0x1b, 0x1f, 0x25, 0xea, 0xe5, 0xfe, 0x06, 0x1a, 0xf2, 0xe9, 0x22, 0xc4, 0x25,
  0x08, 0x21, 0xec, 0x1d, 0xe7, 0xe1, 0x03, 0xe3, 0x16, 0xd7, 0x21, 0x0d, 0x7f, 0x40, 0x29, 0xf0,
  0xbf, 0xc1, 0xd5, 0x19, 0xe8, 0x13, 0xb7, 0xfe, 0xad, 0x41, 0x3f, 0x0e, 0x53, 0x33, 0xd5, 0x8b,
  0xdc, 0x1d, 0x29, 0x95, 0x1f, 0xe1, 0x17, 0x99, 0xc5, 0xc7, 0xea, 0xac, 0xe6, 0x4f, 0x20, 0xef,
  0x4c, 0xc2, 0x43, 0x35, 0x5a, 0x12, 0x06, 0x08, 0xca, 0xf0, 0xf0, 0xf1, 0x9a, 0xdc, 0xa6, 0x47,
  0xa7, 0xf1, 0x2e, 0x0b, 0x8d, 0x11, 0x1c, 0xe6, 0x08, 0x89, 0x39, 0x23, 0xf8, 0xf1, 0xee, 0xcc,
  0x35, 0xe0, 0xf4, 0xfa, 0x78, 0x93, 0xde, 0x2b, 0x11, 0x36, 0x02, 0x08, 0xbb, 0x82, 0x1f, 0xf1,
  0xde, 0x2b, 0xd1, 0x8a, 0xd8, 0x43, 0xd2, 0x10, 0x96, 0xd2, 0x6d, 0x41, 0x81, 0x24, 0x37, 0x8e,
  0x47, 0x88, 0xd7, 0x90, 0xda, 0x2a, 0x61, 0x12, 0x49, 0xdf, 0xf8, 0xfb, 0x03, 0x25, 0xbf, 0x3d,
  0x1f, 0x0f, 0x0e, 0x39, 0xfa, 0xd4, 0x0e, 0xc8, 0x28, 0x1e, 0x01, 0x9b, 0xb2, 0x6e, 0xa0, 0xed,
  0x09, 0x2a, 0xcd, 0x48, 0x77, 0x05, 0xbd, 0xb5, 0xe3, 0xb4, 0xad, 0x3e, 0x62, 0xf8, 0xe1, 0xa7,
  0x13, 0xe1, 0x30, 0xe8, 0xbb, 0xf0, 0xf0, 0x81, 0x04, 0xd2, 0x27, 0x27, 0x17, 0x10, 0xa5, 0xd6,
  0xfd, 0x9b, 0x3a, 0x5e, 0x51, 0x3b, 0x2e, 0xfb, 0xfd, 0x18, 0xb7, 0x1b, 0x59, 0xea, 0x60, 0x19,
  0x0b, 0x45, 0x3c, 0xd4, 0x34, 0xb3, 0xb6, 0xb1, 0x33, 0x03, 0x3c, 0x06, 0x8a, 0x9d, 0x2c, 0x24,
  0x34, 0x07, 0x13, 0xe7, 0x09, 0xd4, 0xce, 0xec, 0x12, 0x0b, 0xd7, 0x18, 0xdc, 0xfd, 0x2f, 0x0a,
  0x03, 0xef, 0x0c, 0xf2, 0xed, 0x11, 0xf1, 0x20, 0x30, 0xdc, 0xdc, 0xd9, 0xbe, 0x03, 0x46, 0x06,
  0x29, 0x46, 0xe1, 0x30, 0x28, 0xbd, 0x2a, 0x34, 0xee, 0xc4, 0xfa, 0xf0, 0xad, 0x04, 0x1d, 0x1f,
  0x14, 0x13, 0x0f, 0x21, 0x05, 0xe4, 0xe9, 0x1e, 0x07, 0xec, 0xb4, 0xdd, 0x35, 0xe5, 0x26, 0xde,
  0xdb, 0x14, 0xb2, 0x17, 0x1a, 0x23, 0xcd, 0xf3, 0xea, 0x17, 0x07, 0xed, 0x49, 0x35, 0x06, 0x0f,
  0x0e, 0xdb, 0xfb, 0xf9, 0xf5, 0x47, 0x2b, 0xf4, 0xde, 0x00, 0xe8, 0xef, 0x7f, 0x11, 0x1d, 0x06,
  0xba, 0x61, 0x71, 0x9f, 0x4d, 0x98, 0xca, 0x27, 0xe2, 0x5a, 0x27, 0xe6, 0xc0, 0xd0, 0xd6, 0x29,
  0x0c, 0xbb, 0x04, 0xe6, 0xeb, 0x4e, 0xe5, 0x7f, 0xe4, 0xbf, 0x3e, 0xb0, 0x3b, 0xaf, 0x45, 0x0c,
  0xa7, 0xed, 0x0b, 0x0e, 0x15, 0xd4, 0x53, 0xc0, 0x16, 0x51, 0x4b, 0x02, 0xe6, 0xec, 0x5b, 0xb8,
  0x11, 0x17, 0xc5, 0x5f, 0xc4, 0x45, 0xbd, 0x0e, 0xb2, 0xf8, 0xd2, 0xd5, 0x54, 0x11, 0xf5, 0x5d,
  0xf2, 0xd9, 0x00, 0x2c, 0xdf, 0x3f, 0x07, 0x40, 0x34, 0xff, 0xd0, 0xd8, 0xd3, 0x4b, 0xcd, 0xd7,
  0x0d, 0x53, 0x24, 0xb8, 0x35, 0xa9, 0x02, 0x3f, 0xbf, 0xd6, 0xaf, 0xfb, 0xd3, 0x8e, 0xcd, 0x37,
  0x30, 0xcd, 0xfb, 0xfa, 0x99, 0xe2, 0x03, 0x27, 0x1d, 0x2d, 0xb6, 0xe8, 0x1d, 0x33, 0xff, 0xbe,
  0xe8, 0x9e, 0xd5, 0x07, 0xd5, 0x08, 0x47, 0xc5, 0xea, 0x2e, 0x41, 0x4e, 0x24, 0x2b, 0xf1, 0x1a,
  0xda, 0x66, 0x2e, 0xf8, 0xc9, 0x05, 0x35, 0x0f, 0xe1, 0xaf, 0xf2, 0x35, 0xe9, 0xa3, 0x13, 0x38,
  0xc4, 0xb8, 0x1b, 0x22, 0xca, 0x07, 0xd3, 0xae, 0x7f, 0xc2, 0xc9, 0xf1, 0x56, 0x1c, 0xe6, 0x42,
  0xa0, 0xff, 0x0a, 0x2a, 0xa5, 0x4f, 0xa1, 0xb4, 0x78, 0xe9, 0x3f, 0xfb, 0xf0, 0x38, 0xbe, 0xf6,
  0xf3, 0xec, 0xea, 0x4c, 0x20, 0x22, 0xe6, 0x40, 0x1f, 0xd4, 0x53, 0xe2, 0x5c, 0x27, 0xf5, 0xcf,
  0xc1, 0xe3, 0x05, 0xe8, 0xeb, 0xed, 0xdb, 0xed, 0x22, 0xf8, 0x10, 0xf4, 0x20, 0xe6, 0xcb, 0x54,
  0x0a, 0xda, 0x31, 0x25, 0xe2, 0x00, 0x07, 0x2d, 0x23, 0xf2, 0x33, 0x16, 0xf9, 0x29, 0xc9, 0xca,
  0xf2, 0x19, 0xda, 0x2b, 0x13, 0x0d, 0x1c, 0xdb, 0x02, 0x03, 0xc1, 0xc3, 0xd7, 0xee, 0x2f, 0xdd,
  0x35, 0x42, 0x1b, 0x40, 0xd5, 0xd1, 0x17, 0x22, 0xf3, 0x15, 0xd5, 0xea, 0x17, 0xe7, 0xe3, 0x32,
  0xac, 0x29, 0x1b, 0xf2, 0x28, 0xbd, 0x0f, 0xcc, 0xfb, 0x15, 0xb6, 0x23, 0x41, 0xfa, 0x1b, 0x11,
  0xe7, 0xea, 0x13, 0xce, 0xde, 0x3d, 0x33, 0x31, 0xba, 0xed, 0x41, 0xe3, 0x81, 0xb0, 0x2a, 0x1d,
  0x1e, 0xd6, 0xf3, 0xe1, 0x07, 0x0a, 0xf7, 0x08, 0x06, 0x09, 0xed, 0x02, 0x0b, 0x22, 0xe6, 0x1c,
  0xf6, 0xf8, 0x0b, 0xe0, 0x1f, 0xe7, 0x06, 0x10, 0xf5, 0xfe, 0x11, 0x1e, 0x07, 0xfc, 0xfd, 0x21,
  0xde, 0xe4, 0xfb, 0xed, 0xfa, 0x1a, 0x28, 0x0b, 0x0c, 0xef, 0x03, 0x14, 0xe3, 0x0f, 0x29, 0xfb,
  0x16, 0x03, 0xef, 0x0c, 0x03, 0x11, 0xe2, 0xef, 0x03, 0xe7, 0xfd, 0xf6, 0xe2, 0xef, 0x06, 0x15,
  0x12, 0x1b, 0xe6, 0x01, 0x03, 0xfb, 0xe9, 0xf1, 0x11, 0xf3, 0x1c, 0xe9, 0x15, 0xf5, 0x03, 0x1b,
  0xe8, 0xdb, 0xfc, 0x05, 0xfc, 0xf7, 0x0e, 0xed, 0xe6, 0xcd, 0x04, 0x21, 0x7f, 0x3e, 0xf1, 0x0f,
  0xf6, 0xee, 0x14, 0x0f, 0xda, 0xf9, 0xfd, 0xf6, 0x05, 0x1f, 0x1a, 0x12, 0x15, 0xec, 0x0a, 0xeb,
  0x05, 0x2b, 0xf7, 0xf3, 0xe3, 0xfc, 0x13, 0x04, 0x11, 0x02, 0xdf, 0x00, 0x17, 0xfd, 0xf3, 0xe6,
  0xf8, 0xf5, 0xef, 0x0f, 0x01, 0x17, 0xea, 0x0f, 0xf6, 0xeb, 0x09, 0xf7, 0x02, 0x0b, 0x17, 0x05,
  0x0a, 0xee, 0xf9, 0xe3, 0xfa, 0xfd, 0xf2, 0xee, 0xec, 0xfd, 0xfe, 0x00, 0x17, 0xf8, 0x18, 0x20,
  0x15, 0xde, 0xfa, 0xf7, 0x03, 0x0d, 0xee, 0xea, 0x0c, 0x19, 0x03, 0x12, 0xfa, 0x23, 0xfa, 0x1b,
  0xeb, 0xfe, 0x14, 0x0c, 0x0d, 0x03, 0x16, 0xde, 0xdd, 0x14, 0x14, 0xf8, 0x81, 0xac, 0xe3, 0xf5,
  0x1c, 0x18, 0xf8, 0x15, 0x36, 0xf6, 0xef, 0xf2, 0xd3, 0xfa, 0xcb, 0xdb, 0xdd, 0x0e, 0xff, 0x16,
  0xe1, 0x2d, 0xeb, 0x0f, 0xff, 0xfc, 0xd1, 0x11, 0x12, 0xd3, 0x0a, 0xd2, 0xf8, 0xfd, 0x21, 0x07,
  0xef, 0x08, 0x2e, 0xe0, 0x1f, 0xe9, 0xf5, 0xcc, 0x12, 0x1a, 0x0d, 0xf5, 0x09, 0xe7, 0x14, 0x13,
  0x23, 0x05, 0x0c, 0x19, 0x3b, 0xdb, 0xf0, 0x04, 0xe4, 0xe8, 0xda, 0xfb, 0xfa, 0x09, 0xf6, 0x23,
  0xe1, 0x49, 0x04, 0x09, 0xe5, 0xfc, 0x1c, 0xfc, 0xf6, 0xee, 0xeb, 0xdb, 0xee, 0x25, 0xfd, 0x12,
  0xbd, 0x0c, 0x1d, 0x27, 0xd9, 0xdc, 0x08, 0xf1, 0x0e, 0xd9, 0x12, 0xfc, 0x7f, 0x58, 0x17, 0x16,
  0x00, 0x1f, 0xba, 0xdd, 0x0a, 0x02, 0xbf, 0xcb, 0x11, 0x05, 0xf2, 0x16, 0xd4, 0x36, 0xe0, 0x21,
  0x07, 0xf8, 0x0b, 0xf9, 0x15, 0x01, 0xf1, 0xf5, 0xe4, 0x01, 0x04, 0x13, 0x10, 0xfe, 0x32, 0x07,
  0xef, 0xfe, 0xf9, 0xfa, 0xee, 0xe2, 0x28, 0x06, 0x16, 0x1a, 0x0a, 0xe6, 0x0d, 0x22, 0xe0, 0x06,
  0xf2, 0x1e, 0x10, 0xf3, 0x31, 0xee, 0xe9, 0x0d, 0xe5, 0xc9, 0x0d, 0x1a, 0x24, 0xfc, 0x06, 0x09,
  0x27, 0x1e, 0x17, 0xf6, 0xda, 0xf2, 0xfa, 0xe7, 0x2a, 0x04, 0x1d, 0x22, 0xdd, 0x29, 0x00, 0x1a,
  0xdf, 0x13, 0xd5, 0xfc, 0x11, 0xe9, 0xfd, 0xfd, 0xd0, 0xdd, 0x2c, 0xe7, 0x7f, 0x2b, 0x24, 0x0b,
  0xe4, 0xec, 0x11, 0x15, 0x13, 0x19, 0x07, 0x10, 0xfe, 0xf4, 0xf1, 0xdd, 0x06, 0x02, 0x10, 0xec,
  0xe0, 0x22, 0xfd, 0x19, 0x01, 0x08, 0xf5, 0xec, 0xef, 0xf0, 0xf7, 0x03, 0xf1, 0x39, 0xde, 0xf6,
  0x19, 0xe8, 0xdd, 0xec, 0x1a, 0x18, 0xee, 0x40, 0xe8, 0xdf, 0x24, 0x0f, 0xc9, 0xfc, 0xed, 0x0f,
  0x20, 0xf9, 0x28, 0xdd, 0x04, 0xed, 0x01, 0xe0, 0x00, 0x3d, 0x1d, 0x2d, 0x28, 0xe4, 0xf8, 0xfa,
  0x14, 0xda, 0xdf, 0xd2, 0xf4, 0xfd, 0xe4, 0x09, 0xff, 0x01, 0xd7, 0xf9, 0x2c, 0x12, 0x28, 0x1b,
  0xf1, 0x0c, 0x2f, 0x21, 0x1c, 0x2c, 0xed, 0xd8, 0xd0, 0x09, 0x3b, 0xf4, 0x7f, 0xf1, 0xea, 0xe1,
  0x1d, 0x0f, 0xfb, 0xdc, 0x0c, 0xd7, 0xdc, 0x27, 0x07, 0x10, 0xed, 0x1a, 0x19, 0xdc, 0xe0, 0x2a,
  0xe8, 0xf3, 0xce, 0x24, 0xc5, 0xef, 0xfd, 0xe5, 0xe1, 0x25, 0x25, 0xed, 0xe5, 0x2f, 0x11, 0xf3,
  0xe7, 0x25, 0x1c, 0xcd, 0xe6, 0x2f, 0xfc, 0xf1, 0xe4, 0x18, 0xdd, 0x1e, 0xdd, 0x19, 0x2a, 0x15,
  0xdf, 0xf8, 0x0b, 0x34, 0xdd, 0xc1, 0x10, 0x15, 0xe4, 0x1f, 0x32, 0xf7, 0xf1, 0x10, 0xda, 0x36,
  0xc7, 0xdd, 0x25, 0x23, 0xd3, 0x10, 0xd2, 0x29, 0x18, 0xd9, 0xd3, 0x2a, 0x13, 0x37, 0xe2, 0xe8,
  0xfa, 0x22, 0xf2, 0xd0, 0xcd, 0xfe, 0x05, 0xd9, 0x2d, 0xf0, 0x16, 0xfc, 0x81, 0x98, 0x25, 0xe6,
  0x36, 0xfa, 0xff, 0xff, 0x04, 0x00, 0x00, 0x00, 0x80, 0x00, 0x00, 0x00, 0x07, 0x00, 0x00, 0x00,
  0x05, 0x03, 0x00, 0x00, 0xe4, 0xee, 0xff, 0xff, 0xd4, 0xfc, 0xff, 0xff, 0x9a, 0x01, 0x00, 0x00,
  0x4f, 0xfd, 0xff, 0xff, 0xf4, 0xf9, 0xff, 0xff, 0xa6, 0x00, 0x00, 0x00, 0x56, 0xfa, 0xff, 0xff,
  0x92, 0xfe, 0xff, 0xff, 0x13, 0xf4, 0xff, 0xff, 0x20, 0xfa, 0xff, 0xff, 0xdd, 0xfb, 0xff, 0xff,
  0x4e, 0xff, 0xff, 0xff, 0x97, 0xfd, 0xff, 0xff, 0x80, 0x01, 0x00, 0x00, 0x9e, 0xfd, 0xff, 0xff,
  0x79, 0xef, 0xff, 0xff, 0x4d, 0xfc, 0xff, 0xff, 0x42, 0xfb, 0xff, 0xff, 0xde, 0xf3, 0xff, 0xff,
  0x81, 0xf4, 0xff, 0xff, 0xfd, 0xf7, 0xff, 0xff, 0x8d, 0xf6, 0xff, 0xff, 0xfd, 0xe7, 0xff, 0xff,
  0x9d, 0xf9, 0xff, 0xff, 0x9b, 0xfe, 0xff, 0xff, 0xfd, 0xfd, 0xff, 0xff, 0xd2, 0xfc, 0xff, 0xff,
  0x99, 0xfd, 0xff, 0xff, 0x45, 0xfa, 0xff, 0xff, 0x31, 0xff, 0xff, 0xff, 0xc2, 0xfa, 0xff, 0xff,
  0x04, 0x00, 0x00, 0x00, 0x00, 0x02, 0x00, 0x00, 0x15, 0xcb, 0xc8, 0x5f, 0xa8, 0xc7, 0x9b, 0xb2,
  0xb5, 0xb2, 0xe3, 0x66, 0xca, 0xf0, 0x81, 0x8a, 0x97, 0x1f, 0x62, 0xfe, 0xf0, 0xd4, 0xe5, 0x59,
  0x1c, 0x8b, 0x43, 0x10, 0x65, 0x65, 0x6f, 0x8e, 0x22, 0x10, 0xf3, 0x69, 0xe9, 0x24, 0x2e, 0xf4,
  0x8b, 0x1f, 0xd0, 0xa6, 0x97, 0x81, 0x41, 0x34, 0x1e, 0x48, 0xb7, 0xf5, 0x27, 0xbf, 0xdf, 0xe2,
  0x1a, 0x4b, 0x85, 0xc3, 0xb8, 0x91, 0xea, 0x3f, 0xb9, 0xb8, 0x5e, 0xef, 0x98, 0xb7, 0x44, 0xc7,
  0xf0, 0xbe, 0x25, 0x3b, 0x3b, 0x17, 0x87, 0xc1, 0xe5, 0xe6, 0x03, 0x4b, 0xca, 0xf0, 0x1a, 0xcc,
  0x23, 0x20, 0x5d, 0xad, 0x47, 0xf9, 0x1f, 0x81, 0xea, 0x00, 0x22, 0xef, 0x20, 0xd8, 0xc1, 0x74,
  0x65, 0x59, 0xf2, 0x14, 0x81, 0xd3, 0x67, 0x0b, 0xef, 0xb6, 0xe7, 0x9a, 0xd6, 0xdb, 0x0a, 0x0c,
  0x29, 0xe2, 0xac, 0x35, 0x95, 0xfc, 0xa4, 0xe0, 0x07, 0xf3, 0x19, 0xe2, 0x46, 0x2a, 0x1b, 0x21,
  0x1a, 0x1a, 0xad, 0x12, 0xb9, 0xa5, 0x0c, 0x4e, 0x1d, 0x09, 0xee, 0x92, 0x24, 0xce, 0x81, 0x37,
  0xb9, 0x28, 0xa6, 0x15, 0xcc, 0xdd, 0x84, 0xed, 0x53, 0x55, 0x12, 0x1d, 0x34, 0x2c, 0x88, 0x3c,
  0x14, 0x4b, 0xd5, 0xb2, 0x9f, 0x81, 0x75, 0x47, 0x1b, 0xd4, 0x8d, 0xbe, 0x37, 0xa3, 0xbb, 0xdb,
  0x89, 0x67, 0xae, 0x33, 0xb1, 0x22, 0xe8, 0x3b, 0xc7, 0xf2, 0xfb, 0x03, 0x3f, 0x03, 0xdd, 0xff,
  0x4b, 0x3d, 0xd6, 0x81, 0x9e, 0xee, 0x5a, 0x29, 0x04, 0x04, 0xa4, 0x0e, 0xf3, 0x1e, 0xef, 0x1c,
  0xa9, 0xf7, 0xbb, 0xdc, 0xe6, 0xdd, 0xd0, 0x46, 0xf5, 0xa8, 0xad, 0xb0, 0xd9, 0xa2, 0xc0, 0xe3,
  0x7f, 0xd3, 0xe3, 0xf7, 0x1f, 0xa2, 0x3a, 0x48, 0xcc, 0xba, 0x13, 0x01, 0x3c, 0xb8, 0xee, 0x7a,
  0xd1, 0x30, 0x85, 0xf2, 0x93, 0x2f, 0x3b, 0xfa, 0x99, 0x81, 0x3f, 0x3c, 0xc7, 0xbe, 0x34, 0xa2,
  0xd7, 0xdd, 0x44, 0x35, 0x23, 0x05, 0xc6, 0xc7, 0xb5, 0x2c, 0x52, 0x15, 0xbb, 0xd8, 0x38, 0x00,
  0x02, 0xce, 0xde, 0xa6, 0xce, 0x54, 0x15, 0xc8, 0xb5, 0x08, 0x63, 0xd1, 0xa6, 0xe7, 0xec, 0x00,
  0xc5, 0xd0, 0xe2, 0x5b, 0xdb, 0xd7, 0xa4, 0xf5, 0xfc, 0xf5, 0x2c, 0xf5, 0x09, 0xbe, 0x44, 0x11,
  0x4e, 0xc5, 0xd3, 0x81, 0xae, 0x36, 0x33, 0xc7, 0xe5, 0x04, 0xe6, 0x21, 0xe7, 0xfd, 0xca, 0x1c,
  0x18, 0xee, 0xed, 0xe2, 0xc1, 0xde, 0x81, 0x17, 0xf0, 0x09, 0xb8, 0x2b, 0xf2, 0xfb, 0xf9, 0xff,
  0xd3, 0xd8, 0x36, 0x50, 0xf4, 0x13, 0xad, 0x0f, 0x15, 0x1e, 0xc8, 0x1a, 0x3e, 0xe9, 0xdb, 0x30,
  0xfc, 0x06, 0x08, 0x20, 0x01, 0xcb, 0x77, 0x3c, 0x30, 0xda, 0x1b, 0xb0, 0x02, 0xa7, 0xd2, 0x40,
  0x99, 0x02, 0xd2, 0x7f, 0xa6, 0xf1, 0xb3, 0x0e, 0xa9, 0xdc, 0x3a, 0x57, 0xcf, 0xb6, 0x11, 0xe9,
  0xa9, 0x9d, 0xdd, 0x50, 0xd9, 0x0a, 0xd1, 0x81, 0x8f, 0x21, 0x68, 0x65, 0xed, 0x0b, 0x25, 0xe0,
  0x16, 0x12, 0x69, 0xb8, 0x19, 0x2a, 0x2b, 0xbe, 0x7f, 0xc6, 0xe0, 0x00, 0xdf, 0xcc, 0xbb, 0xfa,
  0x3a, 0x2a, 0xf9, 0x42, 0x09, 0xff, 0xe1, 0x84, 0x86, 0x83, 0xe9, 0xd2, 0x4a, 0x56, 0x36, 0xed,
  0xa8, 0xea, 0xc1, 0xec, 0xf7, 0xa7, 0x9c, 0x38, 0x29, 0x48, 0x10, 0x11, 0x2c, 0x03, 0xb2, 0x2d,
  0x16, 0xf5, 0xbd, 0xee, 0xd4, 0xdd, 0x7f, 0xf9, 0x03, 0x29, 0xf1, 0x03, 0xe5, 0xe4, 0xaa, 0xcd,
  0xf8, 0x56, 0xd6, 0x4b, 0xb1, 0xd6, 0x9f, 0xf2, 0xaf, 0xb9, 0x3b, 0xb7, 0xf9, 0xa0, 0x62, 0x04,
  0xe8, 0xeb, 0x7f, 0x13, 0x75, 0x3d, 0xf5, 0xaf, 0xba, 0x64, 0x6a, 0x05, 0xbb, 0xbf, 0x01, 0x97,
  0x4e, 0x8e, 0x1a, 0xdb, 0x4e, 0x3e, 0x3d, 0xba, 0xce, 0xfc, 0xff, 0xff, 0x04, 0x00, 0x00, 0x00,
  0x40, 0x00, 0x00, 0x00, 0x49, 0x04, 0x00, 0x00, 0x70, 0xff, 0xff, 0xff, 0xfa, 0x01, 0x00, 0x00,
  0xce, 0x03, 0x00, 0x00, 0x90, 0x03, 0x00, 0x00, 0x6f, 0x01, 0x00, 0x00, 0x4c, 0x02, 0x00, 0x00,
  0x82, 0xfb, 0xff, 0xff, 0xd2, 0x05, 0x00, 0x00, 0x18, 0x08, 0x00, 0x00, 0xe4, 0x03, 0x00, 0x00,
  0xcd, 0xfe, 0xff, 0xff, 0xb9, 0x06, 0x00, 0x00, 0x3c, 0xf4, 0xff, 0xff, 0xbe, 0x04, 0x00, 0x00,
  0x25, 0x04, 0x00, 0x00, 0x1a, 0xfd, 0xff, 0xff, 0x04, 0x00, 0x00, 0x00, 0x80, 0x00, 0x00, 0x00,
  0x7f, 0x25, 0x29, 0xc8, 0xeb, 0xc1, 0xd5, 0xf5, 0x36, 0x59, 0x0a, 0xc9, 0x30, 0xc9, 0xbd, 0x36,
  0xac, 0x9e, 0x8b, 0xda, 0x04, 0x14, 0x35, 0xbd, 0x14, 0x0b, 0x38, 0x7f, 0xcd, 0xdd, 0x9c, 0xbf,
  0x0b, 0x40, 0xbd, 0x0f, 0x52, 0x81, 0x16, 0xf6, 0xaa, 0xcf, 0xf6, 0x31, 0xb8, 0x26, 0x18, 0xd9,
  0x81, 0x1c, 0x41, 0x37, 0x01, 0x38, 0x63, 0x0b, 0x11, 0x34, 0x94, 0x03, 0xaf, 0xd8, 0x20, 0x44,
  0x09, 0xe0, 0xdc, 0xe5, 0xff, 0x9d, 0xfe, 0xc7, 0x7f, 0xc2, 0x19, 0xd0, 0x09, 0xb5, 0xda, 0xc3,
  0xa0, 0x47, 0xfe, 0x3f, 0x24, 0x7c, 0x41, 0x40, 0xda, 0x86, 0x3e, 0xee, 0xb6, 0xe1, 0x3e, 0x81,
  0xd8, 0xce, 0x51, 0xd7, 0x8f, 0xde, 0x81, 0xb6, 0xb3, 0x0e, 0x1c, 0xa4, 0xeb, 0x1f, 0xa6, 0xc6,
  0x81, 0xb9, 0xad, 0xca, 0x3e, 0x89, 0xbc, 0xd2, 0xb5, 0xbe, 0x58, 0xf7, 0x64, 0x37, 0xc0, 0x35,
  0xa6, 0xfd, 0xff, 0xff, 0x04, 0x00, 0x00, 0x00, 0x20, 0x00, 0x00, 0x00, 0xd8, 0x09, 0x00, 0x00,
  0x11, 0x00, 0x00, 0x00, 0x67, 0x03, 0x00, 0x00, 0xde, 0xfc, 0xff, 0xff, 0xed, 0x01, 0x00, 0x00,
  0xf0, 0x08, 0x00, 0x00, 0xa0, 0x04, 0x00, 0x00, 0xd4, 0xfb, 0xff, 0xff, 0xd2, 0xfd, 0xff, 0xff,
  0x04, 0x00, 0x00, 0x00, 0x08, 0x00, 0x00, 0x00, 0x4a, 0xe8, 0xdc, 0x18, 0x56, 0xd5, 0x7f, 0x48,
  0xe6, 0xfd, 0xff, 0xff, 0x04, 0x00, 0x00, 0x00, 0x04, 0x00, 0x00, 0x00, 0x90, 0xff, 0xff, 0xff,
  0xf6, 0xfd, 0xff, 0xff, 0x04, 0x00, 0x00, 0x00, 0x04, 0x00, 0x00, 0x00, 0x60, 0x00, 0x00, 0x00,
  0x06, 0xfe, 0xff, 0xff, 0x04, 0x00, 0x00, 0x00, 0x04, 0x00, 0x00, 0x00, 0x01, 0x00, 0x00, 0x00,
  0x16, 0xfe, 0xff, 0xff, 0x04, 0x00, 0x00, 0x00, 0x04, 0x00, 0x00, 0x00, 0x00, 0x00, 0x00, 0x00,
  0xd0, 0xee, 0xff, 0xff, 0xd4, 0xee, 0xff, 0xff, 0x0f, 0x00, 0x00, 0x00, 0x4d, 0x4c, 0x49, 0x52,
  0x20, 0x43, 0x6f, 0x6e, 0x76, 0x65, 0x72, 0x74, 0x65, 0x64, 0x2e, 0x00, 0x01, 0x00, 0x00, 0x00,
  0x14, 0x00, 0x00, 0x00, 0x00, 0x00, 0x0e, 0x00, 0x18, 0x00, 0x14, 0x00, 0x10, 0x00, 0x0c, 0x00,
  0x08, 0x00, 0x04, 0x00, 0x0e, 0x00, 0x00, 0x00, 0x14, 0x00, 0x00, 0x00, 0x1c, 0x00, 0x00, 0x00,
  0x78, 0x02, 0x00, 0x00, 0x7c, 0x02, 0x00, 0x00, 0x80, 0x02, 0x00, 0x00, 0x04, 0x00, 0x00, 0x00,
  0x6d, 0x61, 0x69, 0x6e, 0x00, 0x00, 0x00, 0x00, 0x0a, 0x00, 0x00, 0x00, 0x40, 0x02, 0x00, 0x00,
  0xf8, 0x01, 0x00, 0x00, 0x98, 0x01, 0x00, 0x00, 0x58, 0x01, 0x00, 0x00, 0x30, 0x01, 0x00, 0x00,
  0xe8, 0x00, 0x00, 0x00, 0x9c, 0x00, 0x00, 0x00, 0x60, 0x00, 0x00, 0x00, 0x28, 0x00, 0x00, 0x00,
  0x04, 0x00, 0x00, 0x00, 0xf2, 0xfe, 0xff, 0xff, 0x0c, 0x00, 0x00, 0x00, 0x10, 0x00, 0x00, 0x00,
  0x06, 0x00, 0x00, 0x00, 0x01, 0x00, 0x00, 0x00, 0x15, 0x00, 0x00, 0x00, 0x01, 0x00, 0x00, 0x00,
  0x14, 0x00, 0x00, 0x00, 0x5a, 0xff, 0xff, 0xff, 0x14, 0x00, 0x00, 0x00, 0x00, 0x00, 0x00, 0x08,
  0x10, 0x00, 0x00, 0x00, 0x14, 0x00, 0x00, 0x00, 0x05, 0x00, 0x00, 0x00, 0x8c, 0xef, 0xff, 0xff,
  0x01, 0x00, 0x00, 0x00, 0x14, 0x00, 0x00, 0x00, 0x03, 0x00, 0x00, 0x00, 0x13, 0x00, 0x00, 0x00,
  0x05, 0x00, 0x00, 0x00, 0x04, 0x00, 0x00, 0x00, 0x8e, 0xff, 0xff, 0xff, 0x14, 0x00, 0x00, 0x00,
  0x00, 0x00, 0x00, 0x08, 0x14, 0x00, 0x00, 0x00, 0x18, 0x00, 0x00, 0x00, 0x05, 0x00, 0x00, 0x00,
  0x7e, 0xfe, 0xff, 0xff, 0x00, 0x00, 0x00, 0x01, 0x01, 0x00, 0x00, 0x00, 0x13, 0x00, 0x00, 0x00,
  0x03, 0x00, 0x00, 0x00, 0x12, 0x00, 0x00, 0x00, 0x07, 0x00, 0x00, 0x00, 0x06, 0x00, 0x00, 0x00,
  0xc6, 0xff, 0xff, 0xff, 0x14, 0x00, 0x00, 0x00, 0x00, 0x00, 0x00, 0x08, 0x14, 0x00, 0x00, 0x00,
  0x18, 0x00, 0x00, 0x00, 0x05, 0x00, 0x00, 0x00, 0xb6, 0xfe, 0xff, 0xff, 0x00, 0x00, 0x00, 0x01,
  0x01, 0x00, 0x00, 0x00, 0x12, 0x00, 0x00, 0x00, 0x03, 0x00, 0x00, 0x00, 0x11, 0x00, 0x00, 0x00,
  0x09, 0x00, 0x00, 0x00, 0x08, 0x00, 0x00, 0x00, 0x00, 0x00, 0x0e, 0x00, 0x18, 0x00, 0x14, 0x00,
  0x10, 0x00, 0x0c, 0x00, 0x0b, 0x00, 0x04, 0x00, 0x0e, 0x00, 0x00, 0x00, 0x14, 0x00, 0x00, 0x00,
  0x00, 0x00, 0x00, 0x08, 0x14, 0x00, 0x00, 0x00, 0x18, 0x00, 0x00, 0x00, 0x05, 0x00, 0x00, 0x00,
  0xfe, 0xfe, 0xff, 0xff, 0x00, 0x00, 0x00, 0x01, 0x01, 0x00, 0x00, 0x00, 0x11, 0x00, 0x00, 0x00,
  0x03, 0x00, 0x00, 0x00, 0x10, 0x00, 0x00, 0x00, 0x0b, 0x00, 0x00, 0x00, 0x0a, 0x00, 0x00, 0x00,
  0x00, 0x00, 0x0a, 0x00, 0x10, 0x00, 0x0c, 0x00, 0x08, 0x00, 0x04, 0x00, 0x0a, 0x00, 0x00, 0x00,
  0x0c, 0x00, 0x00, 0x00, 0x10, 0x00, 0x00, 0x00, 0x04, 0x00, 0x00, 0x00, 0x01, 0x00, 0x00, 0x00,
  0x10, 0x00, 0x00, 0x00, 0x02, 0x00, 0x00, 0x00, 0x0c, 0x00, 0x00, 0x00, 0x0f, 0x00, 0x00, 0x00,
  0x76, 0xff, 0xff, 0xff, 0x1c, 0x00, 0x00, 0x00, 0x00, 0x00, 0x00, 0x3b, 0x1c, 0x00, 0x00, 0x00,
  0x20, 0x00, 0x00, 0x00, 0x03, 0x00, 0x00, 0x00, 0x00, 0x00, 0x06, 0x00, 0x08, 0x00, 0x04, 0x00,
  0x06, 0x00, 0x00, 0x00, 0x02, 0x00, 0x00, 0x00, 0x01, 0x00, 0x00, 0x00, 0x0f, 0x00, 0x00, 0x00,
  0x02, 0x00, 0x00, 0x00, 0x0e, 0x00, 0x00, 0x00, 0x03, 0x00, 0x00, 0x00, 0xb2, 0xff, 0xff, 0xff,
  0x24, 0x00, 0x00, 0x00, 0x00, 0x00, 0x00, 0x20, 0x24, 0x00, 0x00, 0x00, 0x28, 0x00, 0x00, 0x00,
  0x02, 0x00, 0x00, 0x00, 0x00, 0x00, 0x0e, 0x00, 0x08, 0x00, 0x00, 0x00, 0x00, 0x00, 0x00, 0x00,
  0x00, 0x00, 0x04, 0x00, 0x0e, 0x00, 0x00, 0x00, 0x01, 0x00, 0x00, 0x00, 0x01, 0x00, 0x00, 0x00,
  0x0e, 0x00, 0x00, 0x00, 0x04, 0x00, 0x00, 0x00, 0x0d, 0x00, 0x00, 0x00, 0x01, 0x00, 0x00, 0x00,
  0x02, 0x00, 0x00, 0x00, 0x02, 0x00, 0x00, 0x00, 0x00, 0x00, 0x0e, 0x00, 0x1a, 0x00, 0x14, 0x00,
  0x10, 0x00, 0x0c, 0x00, 0x0b, 0x00, 0x04, 0x00, 0x0e, 0x00, 0x00, 0x00, 0x1c, 0x00, 0x00, 0x00,
  0x00, 0x00, 0x00, 0x37, 0x1c, 0x00, 0x00, 0x00, 0x20, 0x00, 0x00, 0x00, 0x01, 0x00, 0x00, 0x00,
  0x00, 0x00, 0x06, 0x00, 0x08, 0x00, 0x07, 0x00, 0x06, 0x00, 0x00, 0x00, 0x00, 0x00, 0x00, 0x02,
  0x01, 0x00, 0x00, 0x00, 0x0d, 0x00, 0x00, 0x00, 0x01, 0x00, 0x00, 0x00, 0x0c, 0x00, 0x00, 0x00,
  0x00, 0x00, 0x0a, 0x00, 0x0c, 0x00, 0x00, 0x00, 0x08, 0x00, 0x04, 0x00, 0x0a, 0x00, 0x00, 0x00,
  0x08, 0x00, 0x00, 0x00, 0x0c, 0x00, 0x00, 0x00, 0x01, 0x00, 0x00, 0x00, 0x0c, 0x00, 0x00, 0x00,
  0x01, 0x00, 0x00, 0x00, 0x00, 0x00, 0x00, 0x00, 0x01, 0x00, 0x00, 0x00, 0x15, 0x00, 0x00, 0x00,
  0x01, 0x00, 0x00, 0x00, 0x00, 0x00, 0x00, 0x00, 0x16, 0x00, 0x00, 0x00, 0x38, 0x0e, 0x00, 0x00,
  0xe0, 0x0d, 0x00, 0x00, 0x88, 0x0d, 0x00, 0x00, 0x4c, 0x0d, 0x00, 0x00, 0xdc, 0x0c, 0x00, 0x00,
  0x74, 0x0c, 0x00, 0x00, 0xc0, 0x0b, 0x00, 0x00, 0x04, 0x0b, 0x00, 0x00, 0xf0, 0x09, 0x00, 0x00,
  0xd4, 0x08, 0x00, 0x00, 0x00, 0x07, 0x00, 0x00, 0x24, 0x05, 0x00, 0x00, 0xac, 0x04, 0x00, 0x00,
  0x44, 0x04, 0x00, 0x00, 0xf0, 0x03, 0x00, 0x00, 0x98, 0x03, 0x00, 0x00, 0x18, 0x03, 0x00, 0x00,
  0x5c, 0x02, 0x00, 0x00, 0xa0, 0x01, 0x00, 0x00, 0xe4, 0x00, 0x00, 0x00, 0x60, 0x00, 0x00, 0x00,
  0x04, 0x00, 0x00, 0x00, 0x36, 0xf2, 0xff, 0xff, 0x00, 0x00, 0x00, 0x01, 0x14, 0x00, 0x00, 0x00,
  0x1c, 0x00, 0x00, 0x00, 0x1c, 0x00, 0x00, 0x00, 0x16, 0x00, 0x00, 0x00, 0x34, 0x00, 0x00, 0x00,
  0x02, 0x00, 0x00, 0x00, 0xff, 0xff, 0xff, 0xff, 0x01, 0x00, 0x00, 0x00, 0x1c, 0xf2, 0xff, 0xff,
  0x1b, 0x00, 0x00, 0x00, 0x53, 0x74, 0x61, 0x74, 0x65, 0x66, 0x75, 0x6c, 0x50, 0x61, 0x72, 0x74,
  0x69, 0x74, 0x69, 0x6f, 0x6e, 0x65, 0x64, 0x43, 0x61, 0x6c, 0x6c, 0x5f, 0x31, 0x3a, 0x30, 0x00,
  0x02, 0x00, 0x00, 0x00, 0x01, 0x00, 0x00, 0x00, 0x01, 0x00, 0x00, 0x00, 0xea, 0xfb, 0xff, 0xff,
  0x00, 0x00, 0x00, 0x01, 0x18, 0x00, 0x00, 0x00, 0x20, 0x00, 0x00, 0x00, 0x40, 0x00, 0x00, 0x00,
  0x15, 0x00, 0x00, 0x00, 0x00, 0x00, 0x00, 0x09, 0x58, 0x00, 0x00, 0x00, 0x02, 0x00, 0x00, 0x00,
  0xff, 0xff, 0xff, 0xff, 0x01, 0x00, 0x00, 0x00, 0xd4, 0xf3, 0xff, 0xff, 0x08, 0x00, 0x00, 0x00,
  0x14, 0x00, 0x00, 0x00, 0x01, 0x00, 0x00, 0x00, 0xbb, 0xff, 0xff, 0xff, 0xff, 0xff, 0xff, 0xff,
  0x00, 0x00, 0x00, 0x00, 0x01, 0x00, 0x00, 0x00, 0xc1, 0xa8, 0x73, 0x3c, 0x1c, 0x00, 0x00, 0x00,
  0x53, 0x74, 0x61, 0x74, 0x65, 0x66, 0x75, 0x6c, 0x50, 0x61, 0x72, 0x74, 0x69, 0x74, 0x69, 0x6f,
  0x6e, 0x65, 0x64, 0x43, 0x61, 0x6c, 0x6c, 0x5f, 0x31, 0x3a, 0x30, 0x31, 0x00, 0x00, 0x00, 0x00,
  0x02, 0x00, 0x00, 0x00, 0x01, 0x00, 0x00, 0x00, 0x01, 0x00, 0x00, 0x00, 0x6a, 0xfc, 0xff, 0xff,
  0x00, 0x00, 0x00, 0x01, 0x18, 0x00, 0x00, 0x00, 0x20, 0x00, 0x00, 0x00, 0x40, 0x00, 0x00, 0x00,
  0x14, 0x00, 0x00, 0x00, 0x00, 0x00, 0x00, 0x09, 0x90, 0x00, 0x00, 0x00, 0x02, 0x00, 0x00, 0x00,
  0xff, 0xff, 0xff, 0xff, 0x08, 0x00, 0x00, 0x00, 0x54, 0xf4, 0xff, 0xff, 0x08, 0x00, 0x00, 0x00,
  0x14, 0x00, 0x00, 0x00, 0x01, 0x00, 0x00, 0x00, 0x80, 0xff, 0xff, 0xff, 0xff, 0xff, 0xff, 0xff,
  0x00, 0x00, 0x00, 0x00, 0x01, 0x00, 0x00, 0x00, 0x1c, 0xc7, 0x9f, 0x3c, 0x55, 0x00, 0x00, 0x00,
  0x73, 0x65, 0x71, 0x75, 0x65, 0x6e, 0x74, 0x69, 0x61, 0x6c, 0x5f, 0x31, 0x2f, 0x64, 0x65, 0x6e,
  0x73, 0x65, 0x33, 0x5f, 0x31, 0x2f, 0x4d, 0x61, 0x74, 0x4d, 0x75, 0x6c, 0x3b, 0x73, 0x65, 0x71,
  0x75, 0x65, 0x6e, 0x74, 0x69, 0x61, 0x6c, 0x5f, 0x31, 0x2f, 0x64, 0x65, 0x6e, 0x73, 0x65, 0x33,
  0x5f, 0x31, 0x2f, 0x52, 0x65, 0x6c, 0x75, 0x3b, 0x73, 0x65, 0x71, 0x75, 0x65, 0x6e, 0x74, 0x69,
  0x61, 0x6c, 0x5f, 0x31, 0x2f, 0x64, 0x65, 0x6e, 0x73, 0x65, 0x33, 0x5f, 0x31, 0x2f, 0x42, 0x69,
  0x61, 0x73, 0x41, 0x64, 0x64, 0x00, 0x00, 0x00, 0x02, 0x00, 0x00, 0x00, 0x01, 0x00, 0x00, 0x00,
  0x08, 0x00, 0x00, 0x00, 0x22, 0xfd, 0xff, 0xff, 0x00, 0x00, 0x00, 0x01, 0x18, 0x00, 0x00, 0x00,
  0x20, 0x00, 0x00, 0x00, 0x40, 0x00, 0x00, 0x00, 0x13, 0x00, 0x00, 0x00, 0x00, 0x00, 0x00, 0x09,
  0x90, 0x00, 0x00, 0x00, 0x02, 0x00, 0x00, 0x00, 0xff, 0xff, 0xff, 0xff, 0x10, 0x00, 0x00, 0x00,
  0x0c, 0xf5, 0xff, 0xff, 0x08, 0x00, 0x00, 0x00, 0x14, 0x00, 0x00, 0x00, 0x01, 0x00, 0x00, 0x00,
  0x80, 0xff, 0xff, 0xff, 0xff, 0xff, 0xff, 0xff, 0x00, 0x00, 0x00, 0x00, 0x01, 0x00, 0x00, 0x00,
  0x19, 0xe8, 0xf3, 0x3c, 0x55, 0x00, 0x00, 0x00, 0x73, 0x65, 0x71, 0x75, 0x65, 0x6e, 0x74, 0x69,
  0x61, 0x6c, 0x5f, 0x31, 0x2f, 0x64, 0x65, 0x6e, 0x73, 0x65, 0x32, 0x5f, 0x31, 0x2f, 0x4d, 0x61,
  0x74, 0x4d, 0x75, 0x6c, 0x3b, 0x73, 0x65, 0x71, 0x75, 0x65, 0x6e, 0x74, 0x69, 0x61, 0x6c, 0x5f,
  0x31, 0x2f, 0x64, 0x65, 0x6e, 0x73, 0x65, 0x32, 0x5f, 0x31, 0x2f, 0x52, 0x65, 0x6c, 0x75, 0x3b,
  0x73, 0x65, 0x71, 0x75, 0x65, 0x6e, 0x74, 0x69, 0x61, 0x6c, 0x5f, 0x31, 0x2f, 0x64, 0x65, 0x6e,
  0x73, 0x65, 0x32, 0x5f, 0x31, 0x2f, 0x42, 0x69, 0x61, 0x73, 0x41, 0x64, 0x64, 0x00, 0x00, 0x00,
  0x02, 0x00, 0x00, 0x00, 0x01, 0x00, 0x00, 0x00, 0x10, 0x00, 0x00, 0x00, 0xda, 0xfd, 0xff, 0xff,
  0x00, 0x00, 0x00, 0x01, 0x18, 0x00, 0x00, 0x00, 0x20, 0x00, 0x00, 0x00, 0x40, 0x00, 0x00, 0x00,
  0x12, 0x00, 0x00, 0x00, 0x00, 0x00, 0x00, 0x09, 0x90, 0x00, 0x00, 0x00, 0x02, 0x00, 0x00, 0x00,
  0xff, 0xff, 0xff, 0xff, 0x20, 0x00, 0x00, 0x00, 0xc4, 0xf5, 0xff, 0xff, 0x08, 0x00, 0x00, 0x00,
  0x14, 0x00, 0x00, 0x00, 0x01, 0x00, 0x00, 0x00, 0x80, 0xff, 0xff, 0xff, 0xff, 0xff, 0xff, 0xff,
  0x00, 0x00, 0x00, 0x00, 0x01, 0x00, 0x00, 0x00, 0xa2, 0xfe, 0x70, 0x3c, 0x55, 0x00, 0x00, 0x00,
  0x73, 0x65, 0x71, 0x75, 0x65, 0x6e, 0x74, 0x69, 0x61, 0x6c, 0x5f, 0x31, 0x2f, 0x64, 0x65, 0x6e,
  0x73, 0x65, 0x31, 0x5f, 0x31, 0x2f, 0x4d, 0x61, 0x74, 0x4d, 0x75, 0x6c, 0x3b, 0x73, 0x65, 0x71,
  0x75, 0x65, 0x6e, 0x74, 0x69, 0x61, 0x6c, 0x5f, 0x31, 0x2f, 0x64, 0x65, 0x6e, 0x73, 0x65, 0x31,
  0x5f, 0x31, 0x2f, 0x52, 0x65, 0x6c, 0x75, 0x3b, 0x73, 0x65, 0x71, 0x75, 0x65, 0x6e, 0x74, 0x69,
  0x61, 0x6c, 0x5f, 0x31, 0x2f, 0x64, 0x65, 0x6e, 0x73, 0x65, 0x31, 0x5f, 0x31, 0x2f, 0x42, 0x69,
  0x61, 0x73, 0x41, 0x64, 0x64, 0x00, 0x00, 0x00, 0x02, 0x00, 0x00, 0x00, 0x01, 0x00, 0x00, 0x00,
  0x20, 0x00, 0x00, 0x00, 0x92, 0xfe, 0xff, 0xff, 0x00, 0x00, 0x00, 0x01, 0x18, 0x00, 0x00, 0x00,
  0x20, 0x00, 0x00, 0x00, 0x3c, 0x00, 0x00, 0x00, 0x11, 0x00, 0x00, 0x00, 0x00, 0x00, 0x00, 0x09,
  0x54, 0x00, 0x00, 0x00, 0x02, 0x00, 0x00, 0x00, 0xff, 0xff, 0xff, 0xff, 0x60, 0x00, 0x00, 0x00,
  0x7c, 0xf6, 0xff, 0xff, 0x08, 0x00, 0x00, 0x00, 0x10, 0x00, 0x00, 0x00, 0x01, 0x00, 0x00, 0x00,
  0xd0, 0xff, 0xff, 0xff, 0xff, 0xff, 0xff, 0xff, 0x01, 0x00, 0x00, 0x00, 0xdc, 0x50, 0xbf, 0x3c,
  0x1e, 0x00, 0x00, 0x00, 0x73, 0x65, 0x71, 0x75, 0x65, 0x6e, 0x74, 0x69, 0x61, 0x6c, 0x5f, 0x31,
  0x2f, 0x66, 0x6c, 0x61, 0x74, 0x74, 0x65, 0x6e, 0x5f, 0x31, 0x2f, 0x52, 0x65, 0x73, 0x68, 0x61,
  0x70, 0x65, 0x00, 0x00, 0x02, 0x00, 0x00, 0x00, 0x01, 0x00, 0x00, 0x00, 0x60, 0x00, 0x00, 0x00,
  0x06, 0xf6, 0xff, 0xff, 0x00, 0x00, 0x00, 0x01, 0x14, 0x00, 0x00, 0x00, 0x14, 0x00, 0x00, 0x00,
  0x10, 0x00, 0x00, 0x00, 0x00, 0x00, 0x00, 0x02, 0x34, 0x00, 0x00, 0x00, 0x8c, 0xf5, 0xff, 0xff,
  0x24, 0x00, 0x00, 0x00, 0x73, 0x65, 0x71, 0x75, 0x65, 0x6e, 0x74, 0x69, 0x61, 0x6c, 0x5f, 0x31,
  0x2f, 0x66, 0x6c, 0x61, 0x74, 0x74, 0x65, 0x6e, 0x5f, 0x31, 0x2f, 0x52, 0x65, 0x73, 0x68, 0x61,
  0x70, 0x65, 0x2f, 0x73, 0x68, 0x61, 0x70, 0x65, 0x00, 0x00, 0x00, 0x00, 0x01, 0x00, 0x00, 0x00,
  0x02, 0x00, 0x00, 0x00, 0x5a, 0xf6, 0xff, 0xff, 0x00, 0x00, 0x00, 0x01, 0x14, 0x00, 0x00, 0x00,
  0x14, 0x00, 0x00, 0x00, 0x0f, 0x00, 0x00, 0x00, 0x00, 0x00, 0x00, 0x02, 0x34, 0x00, 0x00, 0x00,
  0xe0, 0xf5, 0xff, 0xff, 0x24, 0x00, 0x00, 0x00, 0x73, 0x65, 0x71, 0x75, 0x65, 0x6e, 0x74, 0x69,
  0x61, 0x6c, 0x5f, 0x31, 0x2f, 0x66, 0x6c, 0x61, 0x74, 0x74, 0x65, 0x6e, 0x5f, 0x31, 0x2f, 0x73,
  0x74, 0x72, 0x69, 0x64, 0x65, 0x64, 0x5f, 0x73, 0x6c, 0x69, 0x63, 0x65, 0x00, 0x00, 0x00, 0x00,
  0x00, 0x00, 0x00, 0x00, 0xaa, 0xf6, 0xff, 0xff, 0x00, 0x00, 0x00, 0x01, 0x14, 0x00, 0x00, 0x00,
  0x14, 0x00, 0x00, 0x00, 0x0e, 0x00, 0x00, 0x00, 0x00, 0x00, 0x00, 0x02, 0x2c, 0x00, 0x00, 0x00,
  0x30, 0xf6, 0xff, 0xff, 0x1c, 0x00, 0x00, 0x00, 0x73, 0x65, 0x71, 0x75, 0x65, 0x6e, 0x74, 0x69,
  0x61, 0x6c, 0x5f, 0x31, 0x2f, 0x66, 0x6c, 0x61, 0x74, 0x74, 0x65, 0x6e, 0x5f, 0x31, 0x2f, 0x53,
  0x68, 0x61, 0x70, 0x65, 0x00, 0x00, 0x00, 0x00, 0x01, 0x00, 0x00, 0x00, 0x03, 0x00, 0x00, 0x00,
  0x00, 0x00, 0x16, 0x00, 0x20, 0x00, 0x1c, 0x00, 0x1b, 0x00, 0x14, 0x00, 0x10, 0x00, 0x0c, 0x00,
  0x00, 0x00, 0x00, 0x00, 0x08, 0x00, 0x07, 0x00, 0x16, 0x00, 0x00, 0x00, 0x00, 0x00, 0x00, 0x01,
  0x18, 0x00, 0x00, 0x00, 0x24, 0x00, 0x00, 0x00, 0x40, 0x00, 0x00, 0x00, 0x0d, 0x00, 0x00, 0x00,
  0x00, 0x00, 0x00, 0x09, 0x48, 0x00, 0x00, 0x00, 0x03, 0x00, 0x00, 0x00, 0xff, 0xff, 0xff, 0xff,
  0x18, 0x00, 0x00, 0x00, 0x04, 0x00, 0x00, 0x00, 0x04, 0xf8, 0xff, 0xff, 0x08, 0x00, 0x00, 0x00,
  0x10, 0x00, 0x00, 0x00, 0x01, 0x00, 0x00, 0x00, 0xd0, 0xff, 0xff, 0xff, 0xff, 0xff, 0xff, 0xff,
  0x01, 0x00, 0x00, 0x00, 0xdc, 0x50, 0xbf, 0x3c, 0x0c, 0x00, 0x00, 0x00, 0x74, 0x66, 0x6c, 0x2e,
  0x71, 0x75, 0x61, 0x6e, 0x74, 0x69, 0x7a, 0x65, 0x00, 0x00, 0x00, 0x00, 0x03, 0x00, 0x00, 0x00,
  0x01, 0x00, 0x00, 0x00, 0x18, 0x00, 0x00, 0x00, 0x04, 0x00, 0x00, 0x00, 0x82, 0xf7, 0xff, 0xff,
  0x00, 0x00, 0x00, 0x01, 0x14, 0x00, 0x00, 0x00, 0xa8, 0x01, 0x00, 0x00, 0x0c, 0x00, 0x00, 0x00,
  0x00, 0x00, 0x00, 0x09, 0xb4, 0x01, 0x00, 0x00, 0x64, 0xf8, 0xff, 0xff, 0x08, 0x00, 0x00, 0x00,
  0x0c, 0x01, 0x00, 0x00, 0x20, 0x00, 0x00, 0x00, 0x00, 0x00, 0x00, 0x00, 0x00, 0x00, 0x00, 0x00,
  0x00, 0x00, 0x00, 0x00, 0x00, 0x00, 0x00, 0x00, 0x00, 0x00, 0x00, 0x00, 0x00, 0x00, 0x00, 0x00,
  0x00, 0x00, 0x00, 0x00, 0x00, 0x00, 0x00, 0x00, 0x00, 0x00, 0x00, 0x00, 0x00, 0x00, 0x00, 0x00,
  0x00, 0x00, 0x00, 0x00, 0x00, 0x00, 0x00, 0x00, 0x00, 0x00, 0x00, 0x00, 0x00, 0x00, 0x00, 0x00,
  0x00, 0x00, 0x00, 0x00, 0x00, 0x00, 0x00, 0x00, 0x00, 0x00, 0x00, 0x00, 0x00, 0x00, 0x00, 0x00,
  0x00, 0x00, 0x00, 0x00, 0x00, 0x00, 0x00, 0x00, 0x00, 0x00, 0x00, 0x00, 0x00, 0x00, 0x00, 0x00,
  0x00, 0x00, 0x00, 0x00, 0x00, 0x00, 0x00, 0x00, 0x00, 0x00, 0x00, 0x00, 0x00, 0x00, 0x00, 0x00,
  0x00, 0x00, 0x00, 0x00, 0x00, 0x00, 0x00, 0x00, 0x00, 0x00, 0x00, 0x00, 0x00, 0x00, 0x00, 0x00,
  0x00, 0x00, 0x00, 0x00, 0x00, 0x00, 0x00, 0x00, 0x00, 0x00, 0x00, 0x00, 0x00, 0x00, 0x00, 0x00,
  0x00, 0x00, 0x00, 0x00, 0x00, 0x00, 0x00, 0x00, 0x00, 0x00, 0x00, 0x00, 0x00, 0x00, 0x00, 0x00,
  0x00, 0x00, 0x00, 0x00, 0x00, 0x00, 0x00, 0x00, 0x00, 0x00, 0x00, 0x00, 0x00, 0x00, 0x00, 0x00,
  0x00, 0x00, 0x00, 0x00, 0x00, 0x00, 0x00, 0x00, 0x00, 0x00, 0x00, 0x00, 0x00, 0x00, 0x00, 0x00,
  0x00, 0x00, 0x00, 0x00, 0x00, 0x00, 0x00, 0x00, 0x00, 0x00, 0x00, 0x00, 0x00, 0x00, 0x00, 0x00,
  0x00, 0x00, 0x00, 0x00, 0x00, 0x00, 0x00, 0x00, 0x00, 0x00, 0x00, 0x00, 0x00, 0x00, 0x00, 0x00,
  0x00, 0x00, 0x00, 0x00, 0x00, 0x00, 0x00, 0x00, 0x00, 0x00, 0x00, 0x00, 0x00, 0x00, 0x00, 0x00,
  0x00, 0x00, 0x00, 0x00, 0x00, 0x00, 0x00, 0x00, 0x00, 0x00, 0x00, 0x00, 0x00, 0x00, 0x00, 0x00,
  0x00, 0x00, 0x00, 0x00, 0x00, 0x00, 0x00, 0x00, 0x00, 0x00, 0x00, 0x00, 0x20, 0x00, 0x00, 0x00,
  0x1a, 0xc1, 0x99, 0x3b, 0xf4, 0x18, 0xb7, 0x3b, 0xdd, 0x63, 0x17, 0x3b, 0x6b, 0x1b, 0x39, 0x3b,
  0xfa, 0xb0, 0xa9, 0x3b, 0x78, 0xc6, 0x58, 0x3b, 0x8c, 0x7d, 0x5b, 0x3b, 0xbf, 0x6a, 0x89, 0x3b,
  0x11, 0x6f, 0x43, 0x3b, 0xaa, 0xb4, 0xbe, 0x3b, 0x02, 0xac, 0x5d, 0x3b, 0x88, 0xb2, 0x75, 0x3b,
  0xf4, 0xb6, 0x75, 0x3b, 0xd8, 0x26, 0x50, 0x3b, 0x62, 0x53, 0xfd, 0x3b, 0x78, 0xb3, 0xa1, 0x3b,
  0x3d, 0xce, 0x49, 0x3b, 0x5c, 0xb3, 0x15, 0x3b, 0x5f, 0x4f, 0x94, 0x3b, 0x10, 0xa9, 0x86, 0x3b,
  0x80, 0x03, 0x0e, 0x3b, 0x37, 0x7d, 0x01, 0x3b, 0x13, 0xf2, 0x57, 0x3b, 0xb0, 0x44, 0x07, 0x3b,
  0xc5, 0xbb, 0x11, 0x3b, 0xaa, 0xd5, 0x5a, 0x3b, 0x0a, 0x7b, 0xab, 0x3b, 0x51, 0xf7, 0xd8, 0x3b,
  0x7d, 0x10, 0x8b, 0x3b, 0x67, 0x0f, 0x89, 0x3b, 0x98, 0xfd, 0x88, 0x3b, 0x39, 0x00, 0x82, 0x3b,
  0x12, 0x00, 0x00, 0x00, 0x74, 0x66, 0x6c, 0x2e, 0x70, 0x73, 0x65, 0x75, 0x64, 0x6f, 0x5f, 0x71,
  0x63, 0x6f, 0x6e, 0x73, 0x74, 0x37, 0x00, 0x00, 0x02, 0x00, 0x00, 0x00, 0x20, 0x00, 0x00, 0x00,
  0x60, 0x00, 0x00, 0x00, 0x5a, 0xf9, 0xff, 0xff, 0x00, 0x00, 0x00, 0x01, 0x14, 0x00, 0x00, 0x00,
  0xa4, 0x01, 0x00, 0x00, 0x0b, 0x00, 0x00, 0x00, 0x00, 0x00, 0x00, 0x02, 0xb0, 0x01, 0x00, 0x00,
  0x3c, 0xfa, 0xff, 0xff, 0x08, 0x00, 0x00, 0x00, 0x08, 0x01, 0x00, 0x00, 0x20, 0x00, 0x00, 0x00,
  0x00, 0x00, 0x00, 0x00, 0x00, 0x00, 0x00, 0x00, 0x00, 0x00, 0x00, 0x00, 0x00, 0x00, 0x00, 0x00,
  0x00, 0x00, 0x00, 0x00, 0x00, 0x00, 0x00, 0x00, 0x00, 0x00, 0x00, 0x00, 0x00, 0x00, 0x00, 0x00,
  0x00, 0x00, 0x00, 0x00, 0x00, 0x00, 0x00, 0x00, 0x00, 0x00, 0x00, 0x00, 0x00, 0x00, 0x00, 0x00,
  0x00, 0x00, 0x00, 0x00, 0x00, 0x00, 0x00, 0x00, 0x00, 0x00, 0x00, 0x00, 0x00, 0x00, 0x00, 0x00,
  0x00, 0x00, 0x00, 0x00, 0x00, 0x00, 0x00, 0x00, 0x00, 0x00, 0x00, 0x00, 0x00, 0x00, 0x00, 0x00,
  0x00, 0x00, 0x00, 0x00, 0x00, 0x00, 0x00, 0x00, 0x00, 0x00, 0x00, 0x00, 0x00, 0x00, 0x00, 0x00,
  0x00, 0x00, 0x00, 0x00, 0x00, 0x00, 0x00, 0x00, 0x00, 0x00, 0x00, 0x00, 0x00, 0x00, 0x00, 0x00,
  0x00, 0x00, 0x00, 0x00, 0x00, 0x00, 0x00, 0x00, 0x00, 0x00, 0x00, 0x00, 0x00, 0x00, 0x00, 0x00,
  0x00, 0x00, 0x00, 0x00, 0x00, 0x00, 0x00, 0x00, 0x00, 0x00, 0x00, 0x00, 0x00, 0x00, 0x00, 0x00,
  0x00, 0x00, 0x00, 0x00, 0x00, 0x00, 0x00, 0x00, 0x00, 0x00, 0x00, 0x00, 0x00, 0x00, 0x00, 0x00,
  0x00, 0x00, 0x00, 0x00, 0x00, 0x00, 0x00, 0x00, 0x00, 0x00, 0x00, 0x00, 0x00, 0x00, 0x00, 0x00,
  0x00, 0x00, 0x00, 0x00, 0x00, 0x00, 0x00, 0x00, 0x00, 0x00, 0x00, 0x00, 0x00, 0x00, 0x00, 0x00,
  0x00, 0x00, 0x00, 0x00, 0x00, 0x00, 0x00, 0x00, 0x00, 0x00, 0x00, 0x00, 0x00, 0x00, 0x00, 0x00,
  0x00, 0x00, 0x00, 0x00, 0x00, 0x00, 0x00, 0x00, 0x00, 0x00, 0x00, 0x00, 0x00, 0x00, 0x00, 0x00,
  0x00, 0x00, 0x00, 0x00, 0x00, 0x00, 0x00, 0x00, 0x00, 0x00, 0x00, 0x00, 0x00, 0x00, 0x00, 0x00,
  0x00, 0x00, 0x00, 0x00, 0x00, 0x00, 0x00, 0x00, 0x00, 0x00, 0x00, 0x00, 0x00, 0x00, 0x00, 0x00,
  0x20, 0x00, 0x00, 0x00, 0x46, 0xcf, 0xe5, 0x38, 0x73, 0xd5, 0x08, 0x39, 0xa6, 0x46, 0x62, 0x38,
  0xec, 0x55, 0x8a, 0x38, 0x47, 0xa1, 0xfd, 0x38, 0x8c, 0x00, 0xa2, 0x38, 0xff, 0x07, 0xa4, 0x38,
  0x18, 0x64, 0xcd, 0x38, 0x98, 0x0d, 0x92, 0x38, 0x07, 0x85, 0x0e, 0x39, 0x5a, 0xa9, 0xa5, 0x38,
  0xce, 0x9d, 0xb7, 0x38, 0x1c, 0xa1, 0xb7, 0x38, 0xba, 0x8e, 0x9b, 0x38, 0x3a, 0x51, 0x3d, 0x39,
  0xf3, 0xaf, 0xf1, 0x38, 0x9d, 0xd0, 0x96, 0x38, 0x35, 0xc0, 0x5f, 0x38, 0x20, 0xac, 0xdd, 0x38,
  0x57, 0x45, 0xc9, 0x38, 0xef, 0x42, 0x54, 0x38, 0xa5, 0x8a, 0x41, 0x38, 0xd1, 0x61, 0xa1, 0x38,
  0xf2, 0x2d, 0x4a, 0x38, 0x40, 0xd2, 0x59, 0x38, 0x89, 0x8a, 0xa3, 0x38, 0xf6, 0x26, 0x00, 0x39,
  0x0d, 0x25, 0x22, 0x39, 0x74, 0xda, 0xcf, 0x38, 0x91, 0xdb, 0xcc, 0x38, 0xf3, 0xc0, 0xcc, 0x38,
  0x75, 0x4e, 0xc2, 0x38, 0x12, 0x00, 0x00, 0x00, 0x74, 0x66, 0x6c, 0x2e, 0x70, 0x73, 0x65, 0x75,
  0x64, 0x6f, 0x5f, 0x71, 0x63, 0x6f, 0x6e, 0x73, 0x74, 0x36, 0x00, 0x00, 0x01, 0x00, 0x00, 0x00,
  0x20, 0x00, 0x00, 0x00, 0x2a, 0xfb, 0xff, 0xff, 0x00, 0x00, 0x00, 0x01, 0x14, 0x00, 0x00, 0x00,
  0xe8, 0x00, 0x00, 0x00, 0x0a, 0x00, 0x00, 0x00, 0x00, 0x00, 0x00, 0x09, 0xf4, 0x00, 0x00, 0x00,
  0x0c, 0xfc, 0xff, 0xff, 0x08, 0x00, 0x00, 0x00, 0x8c, 0x00, 0x00, 0x00, 0x10, 0x00, 0x00, 0x00,
  0x00, 0x00, 0x00, 0x00, 0x00, 0x00, 0x00, 0x00, 0x00, 0x00, 0x00, 0x00, 0x00, 0x00, 0x00, 0x00,
  0x00, 0x00, 0x00, 0x00, 0x00, 0x00, 0x00, 0x00, 0x00, 0x00, 0x00, 0x00, 0x00, 0x00, 0x00, 0x00,
  0x00, 0x00, 0x00, 0x00, 0x00, 0x00, 0x00, 0x00, 0x00, 0x00, 0x00, 0x00, 0x00, 0x00, 0x00, 0x00,
  0x00, 0x00, 0x00, 0x00, 0x00, 0x00, 0x00, 0x00, 0x00, 0x00, 0x00, 0x00, 0x00, 0x00, 0x00, 0x00,
  0x00, 0x00, 0x00, 0x00, 0x00, 0x00, 0x00, 0x00, 0x00, 0x00, 0x00, 0x00, 0x00, 0x00, 0x00, 0x00,
  0x00, 0x00, 0x00, 0x00, 0x00, 0x00, 0x00, 0x00, 0x00, 0x00, 0x00, 0x00, 0x00, 0x00, 0x00, 0x00,
  0x00, 0x00, 0x00, 0x00, 0x00, 0x00, 0x00, 0x00, 0x00, 0x00, 0x00, 0x00, 0x00, 0x00, 0x00, 0x00,
  0x00, 0x00, 0x00, 0x00, 0x00, 0x00, 0x00, 0x00, 0x00, 0x00, 0x00, 0x00, 0x00, 0x00, 0x00, 0x00,
  0x00, 0x00, 0x00, 0x00, 0x10, 0x00, 0x00, 0x00, 0x5e, 0xc4, 0x30, 0x3b, 0xaf, 0x6c, 0x3c, 0x3b,
  0x84, 0x45, 0x80, 0x3b, 0x0c, 0xaf, 0x5c, 0x3b, 0x95, 0xc0, 0x3e, 0x3b, 0x12, 0x6a, 0x59, 0x3b,
  0x12, 0x2f, 0x88, 0x3b, 0x97, 0xfc, 0x46, 0x3b, 0x05, 0x90, 0x84, 0x3b, 0x56, 0xfe, 0x85, 0x3b,
  0x19, 0xd5, 0x99, 0x3b, 0x89, 0xa1, 0x65, 0x3b, 0x7c, 0xba, 0x7b, 0x3b, 0xa7, 0xf5, 0x44, 0x3b,
  0x3a, 0x65, 0x83, 0x3b, 0x8d, 0x6c, 0x52, 0x3b, 0x12, 0x00, 0x00, 0x00, 0x74, 0x66, 0x6c, 0x2e,
  0x70, 0x73, 0x65, 0x75, 0x64, 0x6f, 0x5f, 0x71, 0x63, 0x6f, 0x6e, 0x73, 0x74, 0x35, 0x00, 0x00,
  0x02, 0x00, 0x00, 0x00, 0x10, 0x00, 0x00, 0x00, 0x20, 0x00, 0x00, 0x00, 0x42, 0xfc, 0xff, 0xff,
  0x00, 0x00, 0x00, 0x01, 0x14, 0x00, 0x00, 0x00, 0xe4, 0x00, 0x00, 0x00, 0x09, 0x00, 0x00, 0x00,
  0x00, 0x00, 0x00, 0x02, 0xf0, 0x00, 0x00, 0x00, 0x24, 0xfd, 0xff, 0xff, 0x08, 0x00, 0x00, 0x00,
  0x88, 0x00, 0x00, 0x00, 0x10, 0x00, 0x00, 0x00, 0x00, 0x00, 0x00, 0x00, 0x00, 0x00, 0x00, 0x00,
  0x00, 0x00, 0x00, 0x00, 0x00, 0x00, 0x00, 0x00, 0x00, 0x00, 0x00, 0x00, 0x00, 0x00, 0x00, 0x00,
  0x00, 0x00, 0x00, 0x00, 0x00, 0x00, 0x00, 0x00, 0x00, 0x00, 0x00, 0x00, 0x00, 0x00, 0x00, 0x00,
  0x00, 0x00, 0x00, 0x00, 0x00, 0x00, 0x00, 0x00, 0x00, 0x00, 0x00, 0x00, 0x00, 0x00, 0x00, 0x00,
  0x00, 0x00, 0x00, 0x00, 0x00, 0x00, 0x00, 0x00, 0x00, 0x00, 0x00, 0x00, 0x00, 0x00, 0x00, 0x00,
  0x00, 0x00, 0x00, 0x00, 0x00, 0x00, 0x00, 0x00, 0x00, 0x00, 0x00, 0x00, 0x00, 0x00, 0x00, 0x00,
  0x00, 0x00, 0x00, 0x00, 0x00, 0x00, 0x00, 0x00, 0x00, 0x00, 0x00, 0x00, 0x00, 0x00, 0x00, 0x00,
  0x00, 0x00, 0x00, 0x00, 0x00, 0x00, 0x00, 0x00, 0x00, 0x00, 0x00, 0x00, 0x00, 0x00, 0x00, 0x00,
  0x00, 0x00, 0x00, 0x00, 0x00, 0x00, 0x00, 0x00, 0x10, 0x00, 0x00, 0x00, 0xeb, 0x67, 0x26, 0x38,
  0x4f, 0x61, 0x31, 0x38, 0x84, 0x81, 0x71, 0x38, 0x9d, 0xbf, 0x4f, 0x38, 0x47, 0x92, 0x33, 0x38,
  0xb2, 0xab, 0x4c, 0x38, 0x96, 0x33, 0x80, 0x38, 0xba, 0x52, 0x3b, 0x38, 0xbf, 0x95, 0x79, 0x38,
  0x70, 0x47, 0x7c, 0x38, 0xca, 0xd0, 0x90, 0x38, 0xd8, 0x2b, 0x58, 0x38, 0x37, 0xf9, 0x6c, 0x38,
  0x35, 0x6a, 0x39, 0x38, 0x30, 0x63, 0x77, 0x38, 0x11, 0x17, 0x46, 0x38, 0x12, 0x00, 0x00, 0x00,
  0x74, 0x66, 0x6c, 0x2e, 0x70, 0x73, 0x65, 0x75, 0x64, 0x6f, 0x5f, 0x71, 0x63, 0x6f, 0x6e, 0x73,
  0x74, 0x34, 0x00, 0x00, 0x01, 0x00, 0x00, 0x00, 0x10, 0x00, 0x00, 0x00, 0x52, 0xfd, 0xff, 0xff,
  0x00, 0x00, 0x00, 0x01, 0x14, 0x00, 0x00, 0x00, 0x88, 0x00, 0x00, 0x00, 0x08, 0x00, 0x00, 0x00,
  0x00, 0x00, 0x00, 0x09, 0x94, 0x00, 0x00, 0x00, 0x34, 0xfe, 0xff, 0xff, 0x08, 0x00, 0x00, 0x00,
  0x4c, 0x00, 0x00, 0x00, 0x08, 0x00, 0x00, 0x00, 0x00, 0x00, 0x00, 0x00, 0x00, 0x00, 0x00, 0x00,
  0x00, 0x00, 0x00, 0x00, 0x00, 0x00, 0x00, 0x00, 0x00, 0x00, 0x00, 0x00, 0x00, 0x00, 0x00, 0x00,
  0x00, 0x00, 0x00, 0x00, 0x00, 0x00, 0x00, 0x00, 0x00, 0x00, 0x00, 0x00, 0x00, 0x00, 0x00, 0x00,
  0x00, 0x00, 0x00, 0x00, 0x00, 0x00, 0x00, 0x00, 0x00, 0x00, 0x00, 0x00, 0x00, 0x00, 0x00, 0x00,
  0x00, 0x00, 0x00, 0x00, 0x00, 0x00, 0x00, 0x00, 0x00, 0x00, 0x00, 0x00, 0x08, 0x00, 0x00, 0x00,
  0x08, 0x2b, 0x6c, 0x3b, 0x5c, 0xae, 0x70, 0x3b, 0xec, 0xd3, 0xa0, 0x3b, 0x21, 0x87, 0x94, 0x3b,
  0x6f, 0xe6, 0x7c, 0x3b, 0x00, 0xbf, 0x87, 0x3b, 0x68, 0x66, 0x59, 0x3b, 0xfb, 0xc2, 0x5e, 0x3b,
  0x12, 0x00, 0x00, 0x00, 0x74, 0x66, 0x6c, 0x2e, 0x70, 0x73, 0x65, 0x75, 0x64, 0x6f, 0x5f, 0x71,
  0x63, 0x6f, 0x6e, 0x73, 0x74, 0x33, 0x00, 0x00, 0x02, 0x00, 0x00, 0x00, 0x08, 0x00, 0x00, 0x00,
  0x10, 0x00, 0x00, 0x00, 0x0a, 0xfe, 0xff, 0xff, 0x00, 0x00, 0x00, 0x01, 0x14, 0x00, 0x00, 0x00,
  0x84, 0x00, 0x00, 0x00, 0x07, 0x00, 0x00, 0x00, 0x00, 0x00, 0x00, 0x02, 0x90, 0x00, 0x00, 0x00,
  0xec, 0xfe, 0xff, 0xff, 0x08, 0x00, 0x00, 0x00, 0x48, 0x00, 0x00, 0x00, 0x08, 0x00, 0x00, 0x00,
  0x00, 0x00, 0x00, 0x00, 0x00, 0x00, 0x00, 0x00, 0x00, 0x00, 0x00, 0x00, 0x00, 0x00, 0x00, 0x00,
  0x00, 0x00, 0x00, 0x00, 0x00, 0x00, 0x00, 0x00, 0x00, 0x00, 0x00, 0x00, 0x00, 0x00, 0x00, 0x00,
  0x00, 0x00, 0x00, 0x00, 0x00, 0x00, 0x00, 0x00, 0x00, 0x00, 0x00, 0x00, 0x00, 0x00, 0x00, 0x00,
  0x00, 0x00, 0x00, 0x00, 0x00, 0x00, 0x00, 0x00, 0x00, 0x00, 0x00, 0x00, 0x00, 0x00, 0x00, 0x00,
  0x08, 0x00, 0x00, 0x00, 0xf7, 0x02, 0xe1, 0x38, 0xb7, 0x4f, 0xe5, 0x38, 0xf9, 0x3a, 0x19, 0x39,
  0xed, 0x82, 0x0d, 0x39, 0x05, 0xf4, 0xf0, 0x38, 0x5f, 0x55, 0x01, 0x39, 0x4f, 0x21, 0xcf, 0x38,
  0x0b, 0x3d, 0xd4, 0x38, 0x12, 0x00, 0x00, 0x00, 0x74, 0x66, 0x6c, 0x2e, 0x70, 0x73, 0x65, 0x75,
  0x64, 0x6f, 0x5f, 0x71, 0x63, 0x6f, 0x6e, 0x73, 0x74, 0x32, 0x00, 0x00, 0x01, 0x00, 0x00, 0x00,
  0x08, 0x00, 0x00, 0x00, 0xba, 0xfe, 0xff, 0xff, 0x00, 0x00, 0x00, 0x01, 0x14, 0x00, 0x00, 0x00,
  0x34, 0x00, 0x00, 0x00, 0x06, 0x00, 0x00, 0x00, 0x00, 0x00, 0x00, 0x09, 0x40, 0x00, 0x00, 0x00,
  0x9c, 0xff, 0xff, 0xff, 0x08, 0x00, 0x00, 0x00, 0x14, 0x00, 0x00, 0x00, 0x01, 0x00, 0x00, 0x00,
  0x00, 0x00, 0x00, 0x00, 0x00, 0x00, 0x00, 0x00, 0x00, 0x00, 0x00, 0x00, 0x01, 0x00, 0x00, 0x00,
  0xe4, 0x2d, 0xf2, 0x3b, 0x12, 0x00, 0x00, 0x00, 0x74, 0x66, 0x6c, 0x2e, 0x70, 0x73, 0x65, 0x75,
  0x64, 0x6f, 0x5f, 0x71, 0x63, 0x6f, 0x6e, 0x73, 0x74, 0x31, 0x00, 0x00, 0x02, 0x00, 0x00, 0x00,
  0x01, 0x00, 0x00, 0x00, 0x08, 0x00, 0x00, 0x00, 0x1e, 0xff, 0xff, 0xff, 0x00, 0x00, 0x00, 0x01,
  0x20, 0x00, 0x00, 0x00, 0x40, 0x00, 0x00, 0x00, 0x05, 0x00, 0x00, 0x00, 0x00, 0x00, 0x00, 0x02,
  0x4c, 0x00, 0x00, 0x00, 0x0c, 0x00, 0x0c, 0x00, 0x00, 0x00, 0x00, 0x00, 0x08, 0x00, 0x04, 0x00,
  0x0c, 0x00, 0x00, 0x00, 0x08, 0x00, 0x00, 0x00, 0x14, 0x00, 0x00, 0x00, 0x01, 0x00, 0x00, 0x00,
  0x00, 0x00, 0x00, 0x00, 0x00, 0x00, 0x00, 0x00, 0x00, 0x00, 0x00, 0x00, 0x01, 0x00, 0x00, 0x00,
  0xdd, 0x26, 0x17, 0x39, 0x11, 0x00, 0x00, 0x00, 0x74, 0x66, 0x6c, 0x2e, 0x70, 0x73, 0x65, 0x75,
  0x64, 0x6f, 0x5f, 0x71, 0x63, 0x6f, 0x6e, 0x73, 0x74, 0x00, 0x00, 0x00, 0x01, 0x00, 0x00, 0x00,
  0x01, 0x00, 0x00, 0x00, 0x8a, 0xff, 0xff, 0xff, 0x00, 0x00, 0x00, 0x01, 0x14, 0x00, 0x00, 0x00,
  0x14, 0x00, 0x00, 0x00, 0x04, 0x00, 0x00, 0x00, 0x00, 0x00, 0x00, 0x02, 0x1c, 0x00, 0x00, 0x00,
  0x10, 0xff, 0xff, 0xff, 0x0f, 0x00, 0x00, 0x00, 0x61, 0x72, 0x69, 0x74, 0x68, 0x2e, 0x63, 0x6f,
  0x6e, 0x73, 0x74, 0x61, 0x6e, 0x74, 0x32, 0x00, 0x00, 0x00, 0x00, 0x00, 0xc2, 0xff, 0xff, 0xff,
  0x00, 0x00, 0x00, 0x01, 0x14, 0x00, 0x00, 0x00, 0x14, 0x00, 0x00, 0x00, 0x03, 0x00, 0x00, 0x00,
  0x00, 0x00, 0x00, 0x02, 0x1c, 0x00, 0x00, 0x00, 0x48, 0xff, 0xff, 0xff, 0x0f, 0x00, 0x00, 0x00,
  0x61, 0x72, 0x69, 0x74, 0x68, 0x2e, 0x63, 0x6f, 0x6e, 0x73, 0x74, 0x61, 0x6e, 0x74, 0x31, 0x00,
  0x01, 0x00, 0x00, 0x00, 0x01, 0x00, 0x00, 0x00, 0x00, 0x00, 0x16, 0x00, 0x1c, 0x00, 0x18, 0x00,
  0x17, 0x00, 0x10, 0x00, 0x0c, 0x00, 0x08, 0x00, 0x00, 0x00, 0x00, 0x00, 0x00, 0x00, 0x07, 0x00,
  0x16, 0x00, 0x00, 0x00, 0x00, 0x00, 0x00, 0x01, 0x14, 0x00, 0x00, 0x00, 0x14, 0x00, 0x00, 0x00,
  0x02, 0x00, 0x00, 0x00, 0x00, 0x00, 0x00, 0x02, 0x1c, 0x00, 0x00, 0x00, 0x9c, 0xff, 0xff, 0xff,
  0x0e, 0x00, 0x00, 0x00, 0x61, 0x72, 0x69, 0x74, 0x68, 0x2e, 0x63, 0x6f, 0x6e, 0x73, 0x74, 0x61,
  0x6e, 0x74, 0x00, 0x00, 0x01, 0x00, 0x00, 0x00, 0x01, 0x00, 0x00, 0x00, 0x00, 0x00, 0x16, 0x00,
  0x1c, 0x00, 0x18, 0x00, 0x00, 0x00, 0x14, 0x00, 0x10, 0x00, 0x0c, 0x00, 0x00, 0x00, 0x00, 0x00,
  0x08, 0x00, 0x07, 0x00, 0x16, 0x00, 0x00, 0x00, 0x00, 0x00, 0x00, 0x01, 0x14, 0x00, 0x00, 0x00,
  0x24, 0x00, 0x00, 0x00, 0x24, 0x00, 0x00, 0x00, 0x01, 0x00, 0x00, 0x00, 0x40, 0x00, 0x00, 0x00,
  0x03, 0x00, 0x00, 0x00, 0xff, 0xff, 0xff, 0xff, 0x18, 0x00, 0x00, 0x00, 0x04, 0x00, 0x00, 0x00,
  0x04, 0x00, 0x04, 0x00, 0x04, 0x00, 0x00, 0x00, 0x1e, 0x00, 0x00, 0x00, 0x73, 0x65, 0x72, 0x76,
  0x69, 0x6e, 0x67, 0x5f, 0x64, 0x65, 0x66, 0x61, 0x75, 0x6c, 0x74, 0x5f, 0x6b, 0x65, 0x72, 0x61,
  0x73, 0x5f, 0x74, 0x65, 0x6e, 0x73, 0x6f, 0x72, 0x3a, 0x30, 0x00, 0x00, 0x03, 0x00, 0x00, 0x00,
  0x01, 0x00, 0x00, 0x00, 0x18, 0x00, 0x00, 0x00, 0x04, 0x00, 0x00, 0x00, 0x07, 0x00, 0x00, 0x00,
  0x84, 0x00, 0x00, 0x00, 0x68, 0x00, 0x00, 0x00, 0x58, 0x00, 0x00, 0x00, 0x48, 0x00, 0x00, 0x00,
  0x38, 0x00, 0x00, 0x00, 0x24, 0x00, 0x00, 0x00, 0x04, 0x00, 0x00, 0x00, 0xf0, 0xff, 0xff, 0xff,
  0x06, 0x00, 0x00, 0x00, 0x02, 0x00, 0x00, 0x00, 0x00, 0x00, 0x00, 0x06, 0x0c, 0x00, 0x10, 0x00,
  0x0f, 0x00, 0x00, 0x00, 0x08, 0x00, 0x04, 0x00, 0x0c, 0x00, 0x00, 0x00, 0x09, 0x00, 0x00, 0x00,
  0x04, 0x00, 0x00, 0x00, 0x00, 0x00, 0x00, 0x09, 0xd0, 0xff, 0xff, 0xff, 0x16, 0x00, 0x00, 0x00,
  0x00, 0x00, 0x00, 0x16, 0xdc, 0xff, 0xff, 0xff, 0x53, 0x00, 0x00, 0x00, 0x00, 0x00, 0x00, 0x53,
  0xe8, 0xff, 0xff, 0xff, 0x2d, 0x00, 0x00, 0x00, 0x00, 0x00, 0x00, 0x2d, 0xf4, 0xff, 0xff, 0xff,
  0x4d, 0x00, 0x00, 0x00, 0x00, 0x00, 0x00, 0x4d, 0x0c, 0x00, 0x0c, 0x00, 0x0b, 0x00, 0x00, 0x00,
  0x00, 0x00, 0x04, 0x00, 0x0c, 0x00, 0x00, 0x00, 0x72, 0x00, 0x00, 0x00, 0x00, 0x00, 0x00, 0x72
};

/* Model size in bytes */
const unsigned int dense_model_tflite_len = 9248;

#ifdef __cplusplus
}
#endif

#endif /* MODEL_DATA_H */
